{
  "version": "1.0",
  "truncation": null,
  "padding": null,
  "added_tokens": [
    {
      "id": 0,
      "content": "[UNK]",
      "single_word": false,
      "lstrip": false,
      "rstrip": false,
      "normalized": false,
      "special": true
    },
    {
      "id": 1,
      "content": "[CLS]",
      "single_word": false,
      "lstrip": false,
      "rstrip": false,
      "normalized": false,
      "special": true
    },
    {
      "id": 2,
      "content": "[PAD]",
      "single_word": false,
      "lstrip": false,
      "rstrip": false,
      "normalized": false,
      "special": true
    }
  ],
  "normalizer": {
    "type": "NFKC"
  },
  "pre_tokenizer": {
    "type": "BertPreTokenizer"
  },
  "post_processor": null,
  "decoder": null,
  "model": {
    "type": "BPE",
    "dropout": null,
    "unk_token": "[UNK]",
    "continuing_subword_prefix": null,
    "end_of_word_suffix": null,
    "fuse_unk": false,
    "byte_fallback": false,
    "ignore_merges": false,
    "vocab": {
      "[UNK]": 0,
      "[CLS]": 1,
      "[PAD]": 2,
      "!": 3,
      "#": 4,
      "$": 5,
      "%": 6,
      "&": 7,
      "'": 8,
      "(": 9,
      ")": 10,
      "*": 11,
      "+": 12,
      ",": 13,
      "-": 14,
      ".": 15,
      "/": 16,
      "0": 17,
      "1": 18,
      "2": 19,
      "3": 20,
      "4": 21,
      "5": 22,
      "6": 23,
      "7": 24,
      "8": 25,
      "9": 26,
      ":": 27,
      ";": 28,
      "=": 29,
      "?": 30,
      "A": 31,
      "B": 32,
      "C": 33,
      "D": 34,
      "E": 35,
      "F": 36,
      "G": 37,
      "H": 38,
      "I": 39,
      "J": 40,
      "K": 41,
      "L": 42,
      "M": 43,
      "N": 44,
      "O": 45,
      "P": 46,
      "Q": 47,
      "R": 48,
      "S": 49,
      "T": 50,
      "U": 51,
      "V": 52,
      "W": 53,
      "X": 54,
      "Y": 55,
      "Z": 56,
      "[": 57,
      "]": 58,
      "_": 59,
      "a": 60,
      "b": 61,
      "c": 62,
      "d": 63,
      "e": 64,
      "f": 65,
      "g": 66,
      "h": 67,
      "i": 68,
      "j": 69,
      "k": 70,
      "l": 71,
      "m": 72,
      "n": 73,
      "o": 74,
      "p": 75,
      "q": 76,
      "r": 77,
      "s": 78,
      "t": 79,
      "u": 80,
      "v": 81,
      "w": 82,
      "x": 83,
      "y": 84,
      "z": 85,
      "{": 86,
      "|": 87,
      "}": 88,
      "À": 89,
      "Á": 90,
      "Æ": 91,
      "Ç": 92,
      "È": 93,
      "É": 94,
      "Ü": 95,
      "à": 96,
      "á": 97,
      "â": 98,
      "ä": 99,
      "æ": 100,
      "ç": 101,
      "è": 102,
      "é": 103,
      "ê": 104,
      "ë": 105,
      "í": 106,
      "î": 107,
      "ï": 108,
      "ñ": 109,
      "ó": 110,
      "ô": 111,
      "ö": 112,
      "ù": 113,
      "ú": 114,
      "û": 115,
      "ü": 116,
      "ý": 117,
      "Œ": 118,
      "œ": 119,
      "—": 120,
      "‘": 121,
      "’": 122,
      "“": 123,
      "”": 124,
      "•": 125,
      "⁄": 126,
      "﻿": 127,
      "th": 128,
      "in": 129,
      "er": 130,
      "an": 131,
      "the": 132,
      "ou": 133,
      "re": 134,
      "on": 135,
      "is": 136,
      "at": 137,
      "en": 138,
      "ed": 139,
      "and": 140,
      "or": 141,
      "to": 142,
      "he": 143,
      "ar": 144,
      "as": 145,
      "ll": 146,
      "of": 147,
      "es": 148,
      "ing": 149,
      "it": 150,
      "ha": 151,
      "se": 152,
      "st": 153,
      "le": 154,
      "no": 155,
      "me": 156,
      "ch": 157,
      "be": 158,
      "wh": 159,
      "wi": 160,
      "ro": 161,
      "you": 162,
      "ce": 163,
      "ve": 164,
      "ld": 165,
      "that": 166,
      "im": 167,
      "his": 168,
      "al": 169,
      "ere": 170,
      "id": 171,
      "ent": 172,
      "ut": 173,
      "gh": 174,
      "ay": 175,
      "nd": 176,
      "ad": 177,
      "ir": 178,
      "ow": 179,
      "ly": 180,
      "with": 181,
      "for": 182,
      "li": 183,
      "not": 184,
      "was": 185,
      "ter": 186,
      "so": 187,
      "all": 188,
      "ion": 189,
      "ri": 190,
      "ver": 191,
      "lo": 192,
      "my": 193,
      "us": 194,
      "co": 195,
      "him": 196,
      "ke": 197,
      "ur": 198,
      "ght": 199,
      "The": 200,
      "we": 201,
      "ra": 202,
      "de": 203,
      "ther": 204,
      "mo": 205,
      "had": 206,
      "her": 207,
      "et": 208,
      "ne": 209,
      "Th": 210,
      "one": 211,
      "our": 212,
      "ct": 213,
      "Wh": 214,
      "od": 215,
      "And": 216,
      "pe": 217,
      "fe": 218,
      "are": 219,
      "ess": 220,
      "un": 221,
      "ain": 222,
      "ich": 223,
      "man": 224,
      "ould": 225,
      "do": 226,
      "this": 227,
      "sa": 228,
      "am": 229,
      "have": 230,
      "su": 231,
      "ck": 232,
      "ag": 233,
      "po": 234,
      "con": 235,
      "sh": 236,
      "thou": 237,
      "go": 238,
      "ab": 239,
      "out": 240,
      "ard": 241,
      "but": 242,
      "now": 243,
      "which": 244,
      "rom": 245,
      "your": 246,
      "ord": 247,
      "fa": 248,
      "te": 249,
      "by": 250,
      "ti": 251,
      "who": 252,
      "fo": 253,
      "res": 254,
      "up": 255,
      "il": 256,
      "la": 257,
      "est": 258,
      "qu": 259,
      "sel": 260,
      "will": 261,
      "from": 262,
      "He": 263,
      "end": 264,
      "fi": 265,
      "ant": 266,
      "she": 267,
      "per": 268,
      "sha": 269,
      "ill": 270,
      "com": 271,
      "ous": 272,
      "thing": 273,
      "ak": 274,
      "ge": 275,
      "ust": 276,
      "si": 277,
      "ind": 278,
      "art": 279,
      "ho": 280,
      "ex": 281,
      "ul": 282,
      "ER": 283,
      "self": 284,
      "ca": 285,
      "were": 286,
      "wo": 287,
      "ong": 288,
      "ers": 289,
      "ine": 290,
      "ok": 291,
      "ru": 292,
      "there": 293,
      "they": 294,
      "what": 295,
      "ast": 296,
      "them": 297,
      "EN": 298,
      "ven": 299,
      "very": 300,
      "pr": 301,
      "if": 302,
      "see": 303,
      "ound": 304,
      "said": 305,
      "ake": 306,
      "ation": 307,
      "ate": 308,
      "AN": 309,
      "ry": 310,
      "their": 311,
      "thy": 312,
      "ment": 313,
      "ight": 314,
      "would": 315,
      "pro": 316,
      "ist": 317,
      "some": 318,
      "way": 319,
      "To": 320,
      "ap": 321,
      "ish": 322,
      "more": 323,
      "know": 324,
      "But": 325,
      "bo": 326,
      "AR": 327,
      "IN": 328,
      "op": 329,
      "ci": 330,
      "ble": 331,
      "US": 332,
      "other": 333,
      "row": 334,
      "ity": 335,
      "ran": 336,
      "ol": 337,
      "oun": 338,
      "That": 339,
      "ure": 340,
      "men": 341,
      "What": 342,
      "did": 343,
      "ence": 344,
      "own": 345,
      "can": 346,
      "wor": 347,
      "shall": 348,
      "ac": 349,
      "fore": 350,
      "ic": 351,
      "ep": 352,
      "ie": 353,
      "good": 354,
      "say": 355,
      "und": 356,
      "It": 357,
      "like": 358,
      "pl": 359,
      "ide": 360,
      "ose": 361,
      "mb": 362,
      "been": 363,
      "let": 364,
      "come": 365,
      "thee": 366,
      "ive": 367,
      "urn": 368,
      "om": 369,
      "ES": 370,
      "than": 371,
      "ade": 372,
      "ort": 373,
      "el": 374,
      "ier": 375,
      "af": 376,
      "then": 377,
      "ince": 378,
      "ress": 379,
      "ON": 380,
      "red": 381,
      "ass": 382,
      "ey": 383,
      "En": 384,
      "when": 385,
      "day": 386,
      "hand": 387,
      "reat": 388,
      "ue": 389,
      "dis": 390,
      "CH": 391,
      "ink": 392,
      "well": 393,
      "any": 394,
      "itt": 395,
      "love": 396,
      "ath": 397,
      "ves": 398,
      "ret": 399,
      "sp": 400,
      "Mar": 401,
      "ved": 402,
      "You": 403,
      "med": 404,
      "time": 405,
      "able": 406,
      "spe": 407,
      "Pr": 408,
      "should": 409,
      "ite": 410,
      "au": 411,
      "ig": 412,
      "In": 413,
      "ty": 414,
      "ear": 415,
      "ach": 416,
      "No": 417,
      "ren": 418,
      "ST": 419,
      "pp": 420,
      "vi": 421,
      "look": 422,
      "ount": 423,
      "again": 424,
      "na": 425,
      "ance": 426,
      "We": 427,
      "gl": 428,
      "OR": 429,
      "here": 430,
      "old": 431,
      "ving": 432,
      "pos": 433,
      "word": 434,
      "bl": 435,
      "ple": 436,
      "age": 437,
      "ness": 438,
      "TH": 439,
      "As": 440,
      "rou": 441,
      "read": 442,
      "use": 443,
      "pt": 444,
      "sc": 445,
      "lord": 446,
      "into": 447,
      "att": 448,
      "che": 449,
      "This": 450,
      "ies": 451,
      "must": 452,
      "has": 453,
      "ree": 454,
      "Ro": 455,
      "ave": 456,
      "himself": 457,
      "For": 458,
      "long": 459,
      "rep": 460,
      "je": 461,
      "ser": 462,
      "ise": 463,
      "lt": 464,
      "ction": 465,
      "where": 466,
      "fl": 467,
      "these": 468,
      "ang": 469,
      "arm": 470,
      "des": 471,
      "mar": 472,
      "ans": 473,
      "could": 474,
      "most": 475,
      "AL": 476,
      "its": 477,
      "how": 478,
      "If": 479,
      "llow": 480,
      "Ex": 481,
      "OL": 482,
      "may": 483,
      "di": 484,
      "um": 485,
      "two": 486,
      "ful": 487,
      "such": 488,
      "II": 489,
      "ated": 490,
      "Enter": 491,
      "every": 492,
      "int": 493,
      "under": 494,
      "ull": 495,
      "thought": 496,
      "So": 497,
      "She": 498,
      "ack": 499,
      "fir": 500,
      "off": 501,
      "beg": 502,
      "make": 503,
      "sir": 504,
      "My": 505,
      "son": 506,
      "inc": 507,
      "head": 508,
      "gr": 509,
      "think": 510,
      "ered": 511,
      "rew": 512,
      "There": 513,
      "ith": 514,
      "eyes": 515,
      "vo": 516,
      "ile": 517,
      "light": 518,
      "right": 519,
      "only": 520,
      "over": 521,
      "uch": 522,
      "upon": 523,
      "tru": 524,
      "An": 525,
      "new": 526,
      "father": 527,
      "great": 528,
      "orn": 529,
      "TER": 530,
      "pa": 531,
      "ward": 532,
      "made": 533,
      "ice": 534,
      "LE": 535,
      "ittle": 536,
      "less": 537,
      "bet": 538,
      "Be": 539,
      "ene": 540,
      "call": 541,
      "about": 542,
      "king": 543,
      "too": 544,
      "ced": 545,
      "ierre": 546,
      "part": 547,
      "life": 548,
      "ius": 549,
      "ft": 550,
      "night": 551,
      "little": 552,
      "Pierre": 553,
      "cont": 554,
      "before": 555,
      "IO": 556,
      "ase": 557,
      "ars": 558,
      "ces": 559,
      "comm": 560,
      "heart": 561,
      "ild": 562,
      "unt": 563,
      "went": 564,
      "cl": 565,
      "Prince": 566,
      "How": 567,
      "speak": 568,
      "hon": 569,
      "stand": 570,
      "sto": 571,
      "even": 572,
      "ING": 573,
      "count": 574,
      "bro": 575,
      "ot": 576,
      "mer": 577,
      "tell": 578,
      "AP": 579,
      "never": 580,
      "ever": 581,
      "pre": 582,
      "ouse": 583,
      "those": 584,
      "EL": 585,
      "down": 586,
      "sm": 587,
      "ev": 588,
      "take": 589,
      "ond": 590,
      "They": 591,
      "pla": 592,
      "pass": 593,
      "RO": 594,
      "cer": 595,
      "bre": 596,
      "much": 597,
      "yet": 598,
      "face": 599,
      "hath": 600,
      "still": 601,
      "gra": 602,
      "ked": 603,
      "turn": 604,
      "ud": 605,
      "clo": 606,
      "ary": 607,
      "br": 608,
      "Why": 609,
      "ps": 610,
      "first": 611,
      "led": 612,
      "When": 613,
      "after": 614,
      "came": 615,
      "away": 616,
      "give": 617,
      "fri": 618,
      "atter": 619,
      "nothing": 620,
      "hor": 621,
      "without": 622,
      "Co": 623,
      "oul": 624,
      "being": 625,
      "gent": 626,
      "arri": 627,
      "same": 628,
      "IA": 629,
      "ire": 630,
      "house": 631,
      "Mo": 632,
      "tain": 633,
      "ally": 634,
      "pres": 635,
      "fer": 636,
      "den": 637,
      "IR": 638,
      "room": 639,
      "aster": 640,
      "cause": 641,
      "just": 642,
      "hi": 643,
      "gu": 644,
      "Go": 645,
      "ign": 646,
      "friend": 647,
      "God": 648,
      "KING": 649,
      "ss": 650,
      "rench": 651,
      "happ": 652,
      "jo": 653,
      "Thou": 654,
      "ions": 655,
      "mon": 656,
      "les": 657,
      "swe": 658,
      "lie": 659,
      "back": 660,
      "LO": 661,
      "With": 662,
      "ks": 663,
      "child": 664,
      "IUS": 665,
      "CHAP": 666,
      "CHAPTER": 667,
      "hea": 668,
      "ace": 669,
      "tri": 670,
      "hear": 671,
      "bed": 672,
      "youn": 673,
      "blo": 674,
      "young": 675,
      "set": 676,
      "iz": 677,
      "wr": 678,
      "rough": 679,
      "fair": 680,
      "full": 681,
      "ma": 682,
      "ened": 683,
      "sk": 684,
      "fort": 685,
      "King": 686,
      "French": 687,
      "Je": 688,
      "get": 689,
      "tra": 690,
      "might": 691,
      "Let": 692,
      "death": 693,
      "ory": 694,
      "put": 695,
      "ings": 696,
      "par": 697,
      "Marius": 698,
      "At": 699,
      "cted": 700,
      "though": 701,
      "em": 702,
      "cour": 703,
      "mber": 704,
      "dra": 705,
      "rest": 706,
      "cons": 707,
      "gen": 708,
      "Nat": 709,
      "aint": 710,
      "rem": 711,
      "press": 712,
      "hold": 713,
      "lad": 714,
      "ont": 715,
      "Do": 716,
      "Of": 717,
      "iss": 718,
      "rown": 719,
      "tak": 720,
      "name": 721,
      "Is": 722,
      "Then": 723,
      "On": 724,
      "gi": 725,
      "mine": 726,
      "nor": 727,
      "ople": 728,
      "ower": 729,
      "His": 730,
      "ins": 731,
      "cle": 732,
      "ásha": 733,
      "cha": 734,
      "ph": 735,
      "vent": 736,
      "done": 737,
      "ick": 738,
      "gentle": 739,
      "TI": 740,
      "Well": 741,
      "appe": 742,
      "once": 743,
      "inter": 744,
      "another": 745,
      "place": 746,
      "Val": 747,
      "ob": 748,
      "Jean": 749,
      "ished": 750,
      "ef": 751,
      "left": 752,
      "ber": 753,
      "Come": 754,
      "blood": 755,
      "Natásha": 756,
      "moment": 757,
      "heard": 758,
      "words": 759,
      "AM": 760,
      "through": 761,
      "people": 762,
      "tal": 763,
      "gn": 764,
      "reas": 765,
      "du": 766,
      "ition": 767,
      "vis": 768,
      "atch": 769,
      "ARD": 770,
      "All": 771,
      "Now": 772,
      "form": 773,
      "Andrew": 774,
      "woman": 775,
      "cc": 776,
      "ghter": 777,
      "Where": 778,
      "ors": 779,
      "war": 780,
      "ten": 781,
      "soul": 782,
      "offi": 783,
      "add": 784,
      "world": 785,
      "ither": 786,
      "ious": 787,
      "pri": 788,
      "óv": 789,
      "ared": 790,
      "une": 791,
      "Exe": 792,
      "cri": 793,
      "RI": 794,
      "fall": 795,
      "IL": 796,
      "ESS": 797,
      "whom": 798,
      "ently": 799,
      "ged": 800,
      "true": 801,
      "ater": 802,
      "jean": 803,
      "orrow": 804,
      "follow": 805,
      "cy": 806,
      "Valjean": 807,
      "LA": 808,
      "tim": 809,
      "Who": 810,
      "air": 811,
      "pur": 812,
      "lack": 813,
      "Exeunt": 814,
      "something": 815,
      "incess": 816,
      "ENE": 817,
      "dist": 818,
      "comp": 819,
      "three": 820,
      "sold": 821,
      "last": 822,
      "By": 823,
      "point": 824,
      "hour": 825,
      "near": 826,
      "fear": 827,
      "tte": 828,
      "reg": 829,
      "cannot": 830,
      "saw": 831,
      "wa": 832,
      "Or": 833,
      "ush": 834,
      "bes": 835,
      "val": 836,
      "land": 837,
      "seen": 838,
      "ga": 839,
      "ons": 840,
      "eral": 841,
      "wer": 842,
      "pleas": 843,
      "ters": 844,
      "many": 845,
      "side": 846,
      "iness": 847,
      "took": 848,
      "ark": 849,
      "Which": 850,
      "mind": 851,
      "Exit": 852,
      "AT": 853,
      "SE": 854,
      "both": 855,
      "ready": 856,
      "year": 857,
      "seemed": 858,
      "heaven": 859,
      "mother": 860,
      "door": 861,
      "ts": 862,
      "CE": 863,
      "find": 864,
      "min": 865,
      "nat": 866,
      "whole": 867,
      "Cose": 868,
      "imp": 869,
      "ways": 870,
      "Cosette": 871,
      "Here": 872,
      "ning": 873,
      "oud": 874,
      "brother": 875,
      "conf": 876,
      "return": 877,
      "against": 878,
      "began": 879,
      "sing": 880,
      "show": 881,
      "cious": 882,
      "felt": 883,
      "poor": 884,
      "sub": 885,
      "ject": 886,
      "ants": 887,
      "wind": 888,
      "ANT": 889,
      "Em": 890,
      "stóv": 891,
      "lau": 892,
      "run": 893,
      "reet": 894,
      "SC": 895,
      "ms": 896,
      "Rostóv": 897,
      "quest": 898,
      "ta": 899,
      "sil": 900,
      "comes": 901,
      "selves": 902,
      "pray": 903,
      "wife": 904,
      "dead": 905,
      "till": 906,
      "sweet": 907,
      "doth": 908,
      "sur": 909,
      "times": 910,
      "Lord": 911,
      "while": 912,
      "Sir": 913,
      "ted": 914,
      "dear": 915,
      "voice": 916,
      "leave": 917,
      "master": 918,
      "inst": 919,
      "tem": 920,
      "char": 921,
      "AC": 922,
      "spo": 923,
      "sle": 924,
      "ip": 925,
      "law": 926,
      "ling": 927,
      "str": 928,
      "IC": 929,
      "cur": 930,
      "kind": 931,
      "used": 932,
      "bod": 933,
      "ily": 934,
      "UC": 935,
      "sand": 936,
      "ations": 937,
      "bu": 938,
      "sible": 939,
      "OF": 940,
      "mad": 941,
      "draw": 942,
      "round": 943,
      "cho": 944,
      "ner": 945,
      "ton": 946,
      "thus": 947,
      "ison": 948,
      "bear": 949,
      "vers": 950,
      "aughter": 951,
      "AND": 952,
      "command": 953,
      "mak": 954,
      "better": 955,
      "far": 956,
      "ón": 957,
      "low": 958,
      "sent": 959,
      "lf": 960,
      "hus": 961,
      "ussi": 962,
      "Your": 963,
      "want": 964,
      "play": 965,
      "tis": 966,
      "sol": 967,
      "asked": 968,
      "feel": 969,
      "lay": 970,
      "daughter": 971,
      "matter": 972,
      "things": 973,
      "looked": 974,
      "cei": 975,
      "bur": 976,
      "ween": 977,
      "ED": 978,
      "cent": 979,
      "cul": 980,
      "One": 981,
      "UR": 982,
      "stran": 983,
      "live": 984,
      "does": 985,
      "ined": 986,
      "Du": 987,
      "band": 988,
      "ger": 989,
      "cal": 990,
      "SCENE": 991,
      "sen": 992,
      "army": 993,
      "Al": 994,
      "Yes": 995,
      "batt": 996,
      "hind": 997,
      "called": 998,
      "remain": 999,
      "rance": 1000,
      "order": 1001,
      "cept": 1002,
      "ctor": 1003,
      "ped": 1004,
      "ross": 1005,
      "found": 1006,
      "myself": 1007,
      "general": 1008,
      "FF": 1009,
      "Sc": 1010,
      "hands": 1011,
      "having": 1012,
      "bit": 1013,
      "eld": 1014,
      "always": 1015,
      "certain": 1016,
      "pect": 1017,
      "ove": 1018,
      "each": 1019,
      "sat": 1020,
      "peror": 1021,
      "joy": 1022,
      "apo": 1023,
      "bra": 1024,
      "ister": 1025,
      "mean": 1026,
      "cess": 1027,
      "honour": 1028,
      "because": 1029,
      "ute": 1030,
      "ls": 1031,
      "deed": 1032,
      "cond": 1033,
      "told": 1034,
      "ash": 1035,
      "work": 1036,
      "Russi": 1037,
      "need": 1038,
      "ati": 1039,
      "PH": 1040,
      "keep": 1041,
      "Ch": 1042,
      "FIR": 1043,
      "hel": 1044,
      "FIRST": 1045,
      "ides": 1046,
      "occ": 1047,
      "av": 1048,
      "turned": 1049,
      "lady": 1050,
      "aw": 1051,
      "fect": 1052,
      "person": 1053,
      "ET": 1054,
      "igh": 1055,
      "ster": 1056,
      "thousand": 1057,
      "lic": 1058,
      "act": 1059,
      "ating": 1060,
      "present": 1061,
      "wall": 1062,
      "fellow": 1063,
      "IS": 1064,
      "mis": 1065,
      "ses": 1066,
      "iers": 1067,
      "que": 1068,
      "body": 1069,
      "QU": 1070,
      "gone": 1071,
      "én": 1072,
      "Engl": 1073,
      "between": 1074,
      "fin": 1075,
      "sound": 1076,
      "hes": 1077,
      "uty": 1078,
      "knew": 1079,
      "ched": 1080,
      "eye": 1081,
      "high": 1082,
      "four": 1083,
      "ended": 1084,
      "leon": 1085,
      "ub": 1086,
      "Pro": 1087,
      "sov": 1088,
      "fool": 1089,
      "possible": 1090,
      "die": 1091,
      "ough": 1092,
      "ENT": 1093,
      "EM": 1094,
      "toward": 1095,
      "ows": 1096,
      "Scene": 1097,
      "noble": 1098,
      "suf": 1099,
      "arms": 1100,
      "III": 1101,
      "scow": 1102,
      "Her": 1103,
      "Tis": 1104,
      "stra": 1105,
      "street": 1106,
      "fire": 1107,
      "reme": 1108,
      "enter": 1109,
      "ief": 1110,
      "whose": 1111,
      "kill": 1112,
      "lied": 1113,
      "dou": 1114,
      "Emperor": 1115,
      "hu": 1116,
      "io": 1117,
      "ting": 1118,
      "going": 1119,
      "horse": 1120,
      "DU": 1121,
      "cor": 1122,
      "dden": 1123,
      "Napo": 1124,
      "don": 1125,
      "der": 1126,
      "power": 1127,
      "got": 1128,
      "longer": 1129,
      "understand": 1130,
      "Moscow": 1131,
      "reason": 1132,
      "Ar": 1133,
      "Ay": 1134,
      "Not": 1135,
      "St": 1136,
      "boy": 1137,
      "Napoleon": 1138,
      "ates": 1139,
      "cut": 1140,
      "Duke": 1141,
      "pet": 1142,
      "ments": 1143,
      "ised": 1144,
      "Par": 1145,
      "mist": 1146,
      "ents": 1147,
      "Good": 1148,
      "express": 1149,
      "coun": 1150,
      "vice": 1151,
      "ned": 1152,
      "forth": 1153,
      "ov": 1154,
      "alone": 1155,
      "spir": 1156,
      "vill": 1157,
      "ken": 1158,
      "sure": 1159,
      "hall": 1160,
      "IV": 1161,
      "bus": 1162,
      "else": 1163,
      "qui": 1164,
      "bea": 1165,
      "sudden": 1166,
      "CON": 1167,
      "best": 1168,
      "rust": 1169,
      "vir": 1170,
      "CA": 1171,
      "foot": 1172,
      "ather": 1173,
      "gave": 1174,
      "half": 1175,
      "behind": 1176,
      "open": 1177,
      "pen": 1178,
      "years": 1179,
      "hast": 1180,
      "everything": 1181,
      "From": 1182,
      "plain": 1183,
      "Mary": 1184,
      "meet": 1185,
      "sign": 1186,
      "care": 1187,
      "sort": 1188,
      "Will": 1189,
      "peace": 1190,
      "contin": 1191,
      "wit": 1192,
      "ket": 1193,
      "Pe": 1194,
      "why": 1195,
      "step": 1196,
      "battle": 1197,
      "since": 1198,
      "tend": 1199,
      "roy": 1200,
      "gir": 1201,
      "ches": 1202,
      "black": 1203,
      "uck": 1204,
      "lle": 1205,
      "ORD": 1206,
      "cla": 1207,
      "already": 1208,
      "pose": 1209,
      "Rue": 1210,
      "taken": 1211,
      "morn": 1212,
      "ream": 1213,
      "prison": 1214,
      "known": 1215,
      "husband": 1216,
      "happy": 1217,
      "whe": 1218,
      "olas": 1219,
      "pped": 1220,
      "Nich": 1221,
      "home": 1222,
      "Nicholas": 1223,
      "herself": 1224,
      "acc": 1225,
      "earth": 1226,
      "state": 1227,
      "sun": 1228,
      "cold": 1229,
      "fr": 1230,
      "Ca": 1231,
      "ian": 1232,
      "vant": 1233,
      "ange": 1234,
      "ult": 1235,
      "dire": 1236,
      "itself": 1237,
      "uf": 1238,
      "France": 1239,
      "dif": 1240,
      "move": 1241,
      "letter": 1242,
      "themselves": 1243,
      "prince": 1244,
      "Princess": 1245,
      "rel": 1246,
      "Some": 1247,
      "gri": 1248,
      "wish": 1249,
      "ery": 1250,
      "tong": 1251,
      "wound": 1252,
      "gs": 1253,
      "THE": 1254,
      "ref": 1255,
      "white": 1256,
      "anything": 1257,
      "ask": 1258,
      "ship": 1259,
      "others": 1260,
      "smile": 1261,
      "answer": 1262,
      "hard": 1263,
      "almost": 1264,
      "car": 1265,
      "sleep": 1266,
      "MAR": 1267,
      "replied": 1268,
      "tow": 1269,
      "cap": 1270,
      "Made": 1271,
      "ited": 1272,
      "ety": 1273,
      "rought": 1274,
      "tom": 1275,
      "friends": 1276,
      "Nor": 1277,
      "KE": 1278,
      "Un": 1279,
      "ste": 1280,
      "days": 1281,
      "sed": 1282,
      "cover": 1283,
      "Rome": 1284,
      "ied": 1285,
      "cks": 1286,
      "bt": 1287,
      "fam": 1288,
      "held": 1289,
      "Mon": 1290,
      "dest": 1291,
      "gall": 1292,
      "lar": 1293,
      "wal": 1294,
      "lies": 1295,
      "Than": 1296,
      "ceived": 1297,
      "vol": 1298,
      "bring": 1299,
      "Paris": 1300,
      "tro": 1301,
      "carri": 1302,
      "xt": 1303,
      "ring": 1304,
      "stay": 1305,
      "fact": 1306,
      "morning": 1307,
      "sho": 1308,
      "shout": 1309,
      "BE": 1310,
      "Have": 1311,
      "ached": 1312,
      "rid": 1313,
      "STA": 1314,
      "Re": 1315,
      "ze": 1316,
      "These": 1317,
      "fre": 1318,
      "dev": 1319,
      "Thén": 1320,
      "Thénard": 1321,
      "mand": 1322,
      "Ah": 1323,
      "ban": 1324,
      "undred": 1325,
      "within": 1326,
      "ards": 1327,
      "strange": 1328,
      "BER": 1329,
      "chief": 1330,
      "question": 1331,
      "dark": 1332,
      "kiss": 1333,
      "sl": 1334,
      "ye": 1335,
      "lost": 1336,
      "appro": 1337,
      "list": 1338,
      "hope": 1339,
      "tre": 1340,
      "gar": 1341,
      "soon": 1342,
      "break": 1343,
      "iled": 1344,
      "none": 1345,
      "hundred": 1346,
      "gether": 1347,
      "Le": 1348,
      "UT": 1349,
      "ird": 1350,
      "jest": 1351,
      "ried": 1352,
      "fully": 1353,
      "laugh": 1354,
      "god": 1355,
      "itu": 1356,
      "bar": 1357,
      "road": 1358,
      "ized": 1359,
      "utter": 1360,
      "wel": 1361,
      "sum": 1362,
      "hop": 1363,
      "ras": 1364,
      "wrong": 1365,
      "Lo": 1366,
      "quite": 1367,
      "suddenly": 1368,
      "ought": 1369,
      "nature": 1370,
      "continu": 1371,
      "Ja": 1372,
      "ya": 1373,
      "stood": 1374,
      "hist": 1375,
      "field": 1376,
      "stri": 1377,
      "stru": 1378,
      "cu": 1379,
      "passed": 1380,
      "cr": 1381,
      "together": 1382,
      "quar": 1383,
      "truth": 1384,
      "ee": 1385,
      "pon": 1386,
      "free": 1387,
      "brought": 1388,
      "talk": 1389,
      "col": 1390,
      "evid": 1391,
      "anger": 1392,
      "claim": 1393,
      "belie": 1394,
      "dro": 1395,
      "rather": 1396,
      "gain": 1397,
      "oney": 1398,
      "officer": 1399,
      "soldiers": 1400,
      "given": 1401,
      "RICH": 1402,
      "SS": 1403,
      "few": 1404,
      "BO": 1405,
      "úz": 1406,
      "INE": 1407,
      "Count": 1408,
      "met": 1409,
      "Kut": 1410,
      "Nay": 1411,
      "bid": 1412,
      "grace": 1413,
      "fur": 1414,
      "maid": 1415,
      "Bo": 1416,
      "mid": 1417,
      "ats": 1418,
      "fal": 1419,
      "pra": 1420,
      "also": 1421,
      "Thénardier": 1422,
      "UL": 1423,
      "úzov": 1424,
      "Kutúzov": 1425,
      "COND": 1426,
      "MAN": 1427,
      "tears": 1428,
      "six": 1429,
      "Shall": 1430,
      "action": 1431,
      "appear": 1432,
      "SECOND": 1433,
      "ceed": 1434,
      "please": 1435,
      "course": 1436,
      "rible": 1437,
      "LET": 1438,
      "RICHARD": 1439,
      "amp": 1440,
      "EEN": 1441,
      "Yet": 1442,
      "pal": 1443,
      "table": 1444,
      "sight": 1445,
      "tongue": 1446,
      "HAM": 1447,
      "RY": 1448,
      "grow": 1449,
      "sie": 1450,
      "court": 1451,
      "Den": 1452,
      "ens": 1453,
      "race": 1454,
      "cra": 1455,
      "cry": 1456,
      "rup": 1457,
      "tou": 1458,
      "ones": 1459,
      "cell": 1460,
      "mus": 1461,
      "vert": 1462,
      "coming": 1463,
      "Mad": 1464,
      "ths": 1465,
      "wenty": 1466,
      "strong": 1467,
      "hair": 1468,
      "entered": 1469,
      "women": 1470,
      "anc": 1471,
      "port": 1472,
      "ures": 1473,
      "iting": 1474,
      "news": 1475,
      "honest": 1476,
      "Our": 1477,
      "Thy": 1478,
      "Ma": 1479,
      "UN": 1480,
      "sword": 1481,
      "virt": 1482,
      "AG": 1483,
      "tion": 1484,
      "oft": 1485,
      "help": 1486,
      "front": 1487,
      "dress": 1488,
      "18": 1489,
      "ris": 1490,
      "position": 1491,
      "yourself": 1492,
      "prof": 1493,
      "bri": 1494,
      "prom": 1495,
      "country": 1496,
      "water": 1497,
      "second": 1498,
      "fight": 1499,
      "Saint": 1500,
      "ities": 1501,
      "faith": 1502,
      "ils": 1503,
      "ground": 1504,
      "PR": 1505,
      "cross": 1506,
      "past": 1507,
      "esar": 1508,
      "ided": 1509,
      "aff": 1510,
      "QUEEN": 1511,
      "emb": 1512,
      "lov": 1513,
      "thine": 1514,
      "lead": 1515,
      "force": 1516,
      "fied": 1517,
      "looking": 1518,
      "small": 1519,
      "va": 1520,
      "vy": 1521,
      "gold": 1522,
      "says": 1523,
      "STAFF": 1524,
      "ski": 1525,
      "FAL": 1526,
      "WN": 1527,
      "kne": 1528,
      "tic": 1529,
      "grand": 1530,
      "case": 1531,
      "tran": 1532,
      "ual": 1533,
      "necess": 1534,
      "quick": 1535,
      "makes": 1536,
      "IT": 1537,
      "din": 1538,
      "become": 1539,
      "soci": 1540,
      "human": 1541,
      "Are": 1542,
      "evening": 1543,
      "dec": 1544,
      "peri": 1545,
      "twenty": 1546,
      "large": 1547,
      "fell": 1548,
      "false": 1549,
      "FALSTAFF": 1550,
      "bad": 1551,
      "children": 1552,
      "pi": 1553,
      "reco": 1554,
      "Caesar": 1555,
      "Oh": 1556,
      "De": 1557,
      "Po": 1558,
      "kho": 1559,
      "IAN": 1560,
      "crown": 1561,
      "means": 1562,
      "ID": 1563,
      "sad": 1564,
      "lled": 1565,
      "enemy": 1566,
      "Russian": 1567,
      "sieur": 1568,
      "along": 1569,
      "five": 1570,
      "ical": 1571,
      "DUKE": 1572,
      "gard": 1573,
      "thoughts": 1574,
      "eng": 1575,
      "enough": 1576,
      "ility": 1577,
      "mur": 1578,
      "ron": 1579,
      "ably": 1580,
      "aring": 1581,
      "Jo": 1582,
      "RA": 1583,
      "watch": 1584,
      "mou": 1585,
      "pret": 1586,
      "youth": 1587,
      "ately": 1588,
      "money": 1589,
      "short": 1590,
      "corn": 1591,
      "ele": 1592,
      "ext": 1593,
      "Javert": 1594,
      "dream": 1595,
      "iment": 1596,
      "appeared": 1597,
      "burn": 1598,
      "adm": 1599,
      "seem": 1600,
      "ured": 1601,
      "uring": 1602,
      "shame": 1603,
      "crow": 1604,
      "post": 1605,
      "ends": 1606,
      "begin": 1607,
      "Són": 1608,
      "shad": 1609,
      "ours": 1610,
      "among": 1611,
      "soldier": 1612,
      "ICK": 1613,
      "Sónya": 1614,
      "GO": 1615,
      "ution": 1616,
      "ices": 1617,
      "saying": 1618,
      "hur": 1619,
      "therefore": 1620,
      "CO": 1621,
      "ame": 1622,
      "dr": 1623,
      "bey": 1624,
      "above": 1625,
      "ROS": 1626,
      "lan": 1627,
      "khov": 1628,
      "Af": 1629,
      "Bor": 1630,
      "itted": 1631,
      "service": 1632,
      "IST": 1633,
      "Lu": 1634,
      "RESS": 1635,
      "Com": 1636,
      "real": 1637,
      "bot": 1638,
      "van": 1639,
      "ísov": 1640,
      "book": 1641,
      "vie": 1642,
      "added": 1643,
      "ANTON": 1644,
      "Denísov": 1645,
      "iling": 1646,
      "ging": 1647,
      "sister": 1648,
      "indeed": 1649,
      "Monsieur": 1650,
      "owed": 1651,
      "breath": 1652,
      "jud": 1653,
      "loved": 1654,
      "knows": 1655,
      "consid": 1656,
      "gentleman": 1657,
      "pain": 1658,
      "sess": 1659,
      "ceive": 1660,
      "por": 1661,
      "vel": 1662,
      "ending": 1663,
      "ishop": 1664,
      "remained": 1665,
      "town": 1666,
      "ia": 1667,
      "plo": 1668,
      "moved": 1669,
      "ung": 1670,
      "cked": 1671,
      "cried": 1672,
      "rant": 1673,
      "sim": 1674,
      "smo": 1675,
      "itting": 1676,
      "girl": 1677,
      "OTH": 1678,
      "fran": 1679,
      "pie": 1680,
      "deep": 1681,
      "grave": 1682,
      "view": 1683,
      "hence": 1684,
      "PRIN": 1685,
      "cou": 1686,
      "hang": 1687,
      "coat": 1688,
      "rage": 1689,
      "LES": 1690,
      "Per": 1691,
      "ges": 1692,
      "tr": 1693,
      "sever": 1694,
      "rose": 1695,
      "clear": 1696,
      "non": 1697,
      "arch": 1698,
      "worth": 1699,
      "pleasure": 1700,
      "Did": 1701,
      "Ha": 1702,
      "hum": 1703,
      "ror": 1704,
      "uten": 1705,
      "ardon": 1706,
      "close": 1707,
      "doubt": 1708,
      "After": 1709,
      "pay": 1710,
      "RE": 1711,
      "barri": 1712,
      "resu": 1713,
      "unto": 1714,
      "ushed": 1715,
      "LUC": 1716,
      "flo": 1717,
      "deser": 1718,
      "business": 1719,
      "sec": 1720,
      "deli": 1721,
      "fortune": 1722,
      "possess": 1723,
      "sup": 1724,
      "sal": 1725,
      "spr": 1726,
      "Give": 1727,
      "wise": 1728,
      "alth": 1729,
      "arewell": 1730,
      "ACT": 1731,
      "England": 1732,
      "HEN": 1733,
      "sy": 1734,
      "ague": 1735,
      "thank": 1736,
      "Look": 1737,
      "either": 1738,
      "ni": 1739,
      "assi": 1740,
      "paper": 1741,
      "feeling": 1742,
      "HO": 1743,
      "danger": 1744,
      "ops": 1745,
      "Aside": 1746,
      "Sh": 1747,
      "TO": 1748,
      "UM": 1749,
      "Anton": 1750,
      "More": 1751,
      "taking": 1752,
      "terrible": 1753,
      "report": 1754,
      "spoke": 1755,
      "Br": 1756,
      "lear": 1757,
      "formed": 1758,
      "often": 1759,
      "weep": 1760,
      "wood": 1761,
      "HENRY": 1762,
      "ield": 1763,
      "lit": 1764,
      "change": 1765,
      "beauty": 1766,
      "evidently": 1767,
      "CLO": 1768,
      "mount": 1769,
      "lips": 1770,
      "cus": 1771,
      "IM": 1772,
      "posed": 1773,
      "desire": 1774,
      "ROM": 1775,
      "jesty": 1776,
      "bene": 1777,
      "sorrow": 1778,
      "May": 1779,
      "bound": 1780,
      "fast": 1781,
      "prep": 1782,
      "garden": 1783,
      "BA": 1784,
      "gre": 1785,
      "sick": 1786,
      "parti": 1787,
      "Li": 1788,
      "ato": 1789,
      "aren": 1790,
      "comfort": 1791,
      "horses": 1792,
      "ines": 1793,
      "princess": 1794,
      "mark": 1795,
      "whether": 1796,
      "zed": 1797,
      "enor": 1798,
      "grief": 1799,
      "cast": 1800,
      "feet": 1801,
      "ousin": 1802,
      "ctions": 1803,
      "ously": 1804,
      "firm": 1805,
      "villain": 1806,
      "Can": 1807,
      "VI": 1808,
      "worthy": 1809,
      "Before": 1810,
      "onder": 1811,
      "company": 1812,
      "ball": 1813,
      "eas": 1814,
      "repe": 1815,
      "Master": 1816,
      "als": 1817,
      "devil": 1818,
      "believe": 1819,
      "ible": 1820,
      "sin": 1821,
      "try": 1822,
      "respect": 1823,
      "line": 1824,
      "pity": 1825,
      "exist": 1826,
      "gods": 1827,
      "received": 1828,
      "countess": 1829,
      "drink": 1830,
      "neither": 1831,
      "fav": 1832,
      "vict": 1833,
      "fine": 1834,
      "ying": 1835,
      "dost": 1836,
      "ages": 1837,
      "cir": 1838,
      "dri": 1839,
      "app": 1840,
      "presence": 1841,
      "spirit": 1842,
      "crowd": 1843,
      "mil": 1844,
      "ug": 1845,
      "prove": 1846,
      "HAMLET": 1847,
      "next": 1848,
      "reng": 1849,
      "straight": 1850,
      "Upon": 1851,
      "recogn": 1852,
      "Fau": 1853,
      "fing": 1854,
      "fit": 1855,
      "affair": 1856,
      "div": 1857,
      "fly": 1858,
      "fright": 1859,
      "iant": 1860,
      "late": 1861,
      "chang": 1862,
      "English": 1863,
      "cre": 1864,
      "dom": 1865,
      "hither": 1866,
      "remember": 1867,
      "expression": 1868,
      "dam": 1869,
      "hn": 1870,
      "streng": 1871,
      "mistress": 1872,
      "yes": 1873,
      "motion": 1874,
      "returned": 1875,
      "Though": 1876,
      "towards": 1877,
      "tender": 1878,
      "pale": 1879,
      "PO": 1880,
      "rain": 1881,
      "subject": 1882,
      "Even": 1883,
      "Rich": 1884,
      "Mont": 1885,
      "Would": 1886,
      "sea": 1887,
      "dep": 1888,
      "qual": 1889,
      "bless": 1890,
      "John": 1891,
      "cers": 1892,
      "creat": 1893,
      "bell": 1894,
      "continued": 1895,
      "umber": 1896,
      "madam": 1897,
      "rich": 1898,
      "rum": 1899,
      "lords": 1900,
      "Bar": 1901,
      "became": 1902,
      "eat": 1903,
      "differ": 1904,
      "mouth": 1905,
      "sor": 1906,
      "tempt": 1907,
      "SH": 1908,
      "bor": 1909,
      "ues": 1910,
      "forward": 1911,
      "opened": 1912,
      "charge": 1913,
      "suffer": 1914,
      "further": 1915,
      "PER": 1916,
      "duty": 1917,
      "pati": 1918,
      "ught": 1919,
      "worn": 1920,
      "chamber": 1921,
      "barric": 1922,
      "city": 1923,
      "window": 1924,
      "purpose": 1925,
      "dare": 1926,
      "def": 1927,
      "capt": 1928,
      "serv": 1929,
      "DO": 1930,
      "har": 1931,
      "iv": 1932,
      "cient": 1933,
      "Ed": 1934,
      "pected": 1935,
      "cience": 1936,
      "acqu": 1937,
      "thor": 1938,
      "assa": 1939,
      "sake": 1940,
      "content": 1941,
      "hours": 1942,
      "satis": 1943,
      "Dó": 1944,
      "Que": 1945,
      "cousin": 1946,
      "tern": 1947,
      "fold": 1948,
      "sometimes": 1949,
      "glo": 1950,
      "cial": 1951,
      "marry": 1952,
      "clock": 1953,
      "address": 1954,
      "Was": 1955,
      "ek": 1956,
      "ell": 1957,
      "itor": 1958,
      "former": 1959,
      "rap": 1960,
      "supp": 1961,
      "lice": 1962,
      "counter": 1963,
      "serve": 1964,
      "Ju": 1965,
      "oth": 1966,
      "sit": 1967,
      "ening": 1968,
      "weak": 1969,
      "itude": 1970,
      "PE": 1971,
      "ford": 1972,
      "liar": 1973,
      "fif": 1974,
      "contr": 1975,
      "Dólo": 1976,
      "lou": 1977,
      "len": 1978,
      "miss": 1979,
      "ork": 1980,
      "habit": 1981,
      "living": 1982,
      "uni": 1983,
      "manner": 1984,
      "Dólokhov": 1985,
      "ances": 1986,
      "staff": 1987,
      "wear": 1988,
      "mercy": 1989,
      "morrow": 1990,
      "rend": 1991,
      "kept": 1992,
      "fix": 1993,
      "leg": 1994,
      "ESTER": 1995,
      "guard": 1996,
      "ize": 1997,
      "hood": 1998,
      "wounded": 1999,
      "bs": 2000,
      "fle": 2001,
      "pit": 2002,
      "teen": 2003,
      "unders": 2004,
      "pair": 2005,
      "born": 2006,
      "pardon": 2007,
      "tle": 2008,
      "trou": 2009,
      "ney": 2010,
      "gover": 2011,
      "prov": 2012,
      "royal": 2013,
      "making": 2014,
      "Queen": 2015,
      "haps": 2016,
      "excell": 2017,
      "looks": 2018,
      "Every": 2019,
      "Gu": 2020,
      "Hen": 2021,
      "wret": 2022,
      "chance": 2023,
      "attent": 2024,
      "semb": 2025,
      "proud": 2026,
      "silence": 2027,
      "MON": 2028,
      "ELLO": 2029,
      "shouted": 2030,
      "GAR": 2031,
      "owers": 2032,
      "glass": 2033,
      "covered": 2034,
      "fat": 2035,
      "mor": 2036,
      "umb": 2037,
      "shalt": 2038,
      "chair": 2039,
      "troops": 2040,
      "gin": 2041,
      "send": 2042,
      "resol": 2043,
      "LORD": 2044,
      "tood": 2045,
      "imag": 2046,
      "ereign": 2047
    },
    "merges": [
      [
        "t",
        "h"
      ],
      [
        "i",
        "n"
      ],
      [
        "e",
        "r"
      ],
      [
        "a",
        "n"
      ],
      [
        "th",
        "e"
      ],
      [
        "o",
        "u"
      ],
      [
        "r",
        "e"
      ],
      [
        "o",
        "n"
      ],
      [
        "i",
        "s"
      ],
      [
        "a",
        "t"
      ],
      [
        "e",
        "n"
      ],
      [
        "e",
        "d"
      ],
      [
        "an",
        "d"
      ],
      [
        "o",
        "r"
      ],
      [
        "t",
        "o"
      ],
      [
        "h",
        "e"
      ],
      [
        "a",
        "r"
      ],
      [
        "a",
        "s"
      ],
      [
        "l",
        "l"
      ],
      [
        "o",
        "f"
      ],
      [
        "e",
        "s"
      ],
      [
        "in",
        "g"
      ],
      [
        "i",
        "t"
      ],
      [
        "h",
        "a"
      ],
      [
        "s",
        "e"
      ],
      [
        "s",
        "t"
      ],
      [
        "l",
        "e"
      ],
      [
        "n",
        "o"
      ],
      [
        "m",
        "e"
      ],
      [
        "c",
        "h"
      ],
      [
        "b",
        "e"
      ],
      [
        "w",
        "h"
      ],
      [
        "w",
        "i"
      ],
      [
        "r",
        "o"
      ],
      [
        "y",
        "ou"
      ],
      [
        "c",
        "e"
      ],
      [
        "v",
        "e"
      ],
      [
        "l",
        "d"
      ],
      [
        "th",
        "at"
      ],
      [
        "i",
        "m"
      ],
      [
        "h",
        "is"
      ],
      [
        "a",
        "l"
      ],
      [
        "er",
        "e"
      ],
      [
        "i",
        "d"
      ],
      [
        "en",
        "t"
      ],
      [
        "u",
        "t"
      ],
      [
        "g",
        "h"
      ],
      [
        "a",
        "y"
      ],
      [
        "n",
        "d"
      ],
      [
        "a",
        "d"
      ],
      [
        "i",
        "r"
      ],
      [
        "o",
        "w"
      ],
      [
        "l",
        "y"
      ],
      [
        "wi",
        "th"
      ],
      [
        "f",
        "or"
      ],
      [
        "l",
        "i"
      ],
      [
        "no",
        "t"
      ],
      [
        "w",
        "as"
      ],
      [
        "t",
        "er"
      ],
      [
        "s",
        "o"
      ],
      [
        "a",
        "ll"
      ],
      [
        "i",
        "on"
      ],
      [
        "r",
        "i"
      ],
      [
        "v",
        "er"
      ],
      [
        "l",
        "o"
      ],
      [
        "m",
        "y"
      ],
      [
        "u",
        "s"
      ],
      [
        "c",
        "o"
      ],
      [
        "h",
        "im"
      ],
      [
        "k",
        "e"
      ],
      [
        "u",
        "r"
      ],
      [
        "gh",
        "t"
      ],
      [
        "T",
        "he"
      ],
      [
        "w",
        "e"
      ],
      [
        "r",
        "a"
      ],
      [
        "d",
        "e"
      ],
      [
        "th",
        "er"
      ],
      [
        "m",
        "o"
      ],
      [
        "ha",
        "d"
      ],
      [
        "h",
        "er"
      ],
      [
        "e",
        "t"
      ],
      [
        "n",
        "e"
      ],
      [
        "T",
        "h"
      ],
      [
        "on",
        "e"
      ],
      [
        "ou",
        "r"
      ],
      [
        "c",
        "t"
      ],
      [
        "W",
        "h"
      ],
      [
        "o",
        "d"
      ],
      [
        "A",
        "nd"
      ],
      [
        "p",
        "e"
      ],
      [
        "f",
        "e"
      ],
      [
        "a",
        "re"
      ],
      [
        "es",
        "s"
      ],
      [
        "u",
        "n"
      ],
      [
        "a",
        "in"
      ],
      [
        "i",
        "ch"
      ],
      [
        "m",
        "an"
      ],
      [
        "ou",
        "ld"
      ],
      [
        "d",
        "o"
      ],
      [
        "th",
        "is"
      ],
      [
        "s",
        "a"
      ],
      [
        "a",
        "m"
      ],
      [
        "ha",
        "ve"
      ],
      [
        "s",
        "u"
      ],
      [
        "c",
        "k"
      ],
      [
        "a",
        "g"
      ],
      [
        "p",
        "o"
      ],
      [
        "c",
        "on"
      ],
      [
        "s",
        "h"
      ],
      [
        "th",
        "ou"
      ],
      [
        "g",
        "o"
      ],
      [
        "a",
        "b"
      ],
      [
        "ou",
        "t"
      ],
      [
        "ar",
        "d"
      ],
      [
        "b",
        "ut"
      ],
      [
        "no",
        "w"
      ],
      [
        "wh",
        "ich"
      ],
      [
        "ro",
        "m"
      ],
      [
        "you",
        "r"
      ],
      [
        "or",
        "d"
      ],
      [
        "f",
        "a"
      ],
      [
        "t",
        "e"
      ],
      [
        "b",
        "y"
      ],
      [
        "t",
        "i"
      ],
      [
        "wh",
        "o"
      ],
      [
        "f",
        "o"
      ],
      [
        "re",
        "s"
      ],
      [
        "u",
        "p"
      ],
      [
        "i",
        "l"
      ],
      [
        "l",
        "a"
      ],
      [
        "es",
        "t"
      ],
      [
        "q",
        "u"
      ],
      [
        "se",
        "l"
      ],
      [
        "wi",
        "ll"
      ],
      [
        "f",
        "rom"
      ],
      [
        "H",
        "e"
      ],
      [
        "en",
        "d"
      ],
      [
        "f",
        "i"
      ],
      [
        "an",
        "t"
      ],
      [
        "s",
        "he"
      ],
      [
        "p",
        "er"
      ],
      [
        "s",
        "ha"
      ],
      [
        "i",
        "ll"
      ],
      [
        "co",
        "m"
      ],
      [
        "ou",
        "s"
      ],
      [
        "th",
        "ing"
      ],
      [
        "a",
        "k"
      ],
      [
        "g",
        "e"
      ],
      [
        "u",
        "st"
      ],
      [
        "s",
        "i"
      ],
      [
        "in",
        "d"
      ],
      [
        "ar",
        "t"
      ],
      [
        "h",
        "o"
      ],
      [
        "e",
        "x"
      ],
      [
        "u",
        "l"
      ],
      [
        "E",
        "R"
      ],
      [
        "sel",
        "f"
      ],
      [
        "c",
        "a"
      ],
      [
        "w",
        "ere"
      ],
      [
        "w",
        "o"
      ],
      [
        "on",
        "g"
      ],
      [
        "er",
        "s"
      ],
      [
        "in",
        "e"
      ],
      [
        "o",
        "k"
      ],
      [
        "r",
        "u"
      ],
      [
        "th",
        "ere"
      ],
      [
        "the",
        "y"
      ],
      [
        "wh",
        "at"
      ],
      [
        "as",
        "t"
      ],
      [
        "the",
        "m"
      ],
      [
        "E",
        "N"
      ],
      [
        "v",
        "en"
      ],
      [
        "ver",
        "y"
      ],
      [
        "p",
        "r"
      ],
      [
        "i",
        "f"
      ],
      [
        "se",
        "e"
      ],
      [
        "ou",
        "nd"
      ],
      [
        "sa",
        "id"
      ],
      [
        "a",
        "ke"
      ],
      [
        "at",
        "ion"
      ],
      [
        "at",
        "e"
      ],
      [
        "A",
        "N"
      ],
      [
        "r",
        "y"
      ],
      [
        "the",
        "ir"
      ],
      [
        "th",
        "y"
      ],
      [
        "m",
        "ent"
      ],
      [
        "i",
        "ght"
      ],
      [
        "w",
        "ould"
      ],
      [
        "p",
        "ro"
      ],
      [
        "is",
        "t"
      ],
      [
        "so",
        "me"
      ],
      [
        "w",
        "ay"
      ],
      [
        "T",
        "o"
      ],
      [
        "a",
        "p"
      ],
      [
        "is",
        "h"
      ],
      [
        "mo",
        "re"
      ],
      [
        "k",
        "now"
      ],
      [
        "B",
        "ut"
      ],
      [
        "b",
        "o"
      ],
      [
        "A",
        "R"
      ],
      [
        "I",
        "N"
      ],
      [
        "o",
        "p"
      ],
      [
        "c",
        "i"
      ],
      [
        "b",
        "le"
      ],
      [
        "U",
        "S"
      ],
      [
        "o",
        "ther"
      ],
      [
        "ro",
        "w"
      ],
      [
        "it",
        "y"
      ],
      [
        "r",
        "an"
      ],
      [
        "o",
        "l"
      ],
      [
        "ou",
        "n"
      ],
      [
        "Th",
        "at"
      ],
      [
        "u",
        "re"
      ],
      [
        "m",
        "en"
      ],
      [
        "Wh",
        "at"
      ],
      [
        "d",
        "id"
      ],
      [
        "en",
        "ce"
      ],
      [
        "ow",
        "n"
      ],
      [
        "c",
        "an"
      ],
      [
        "w",
        "or"
      ],
      [
        "sha",
        "ll"
      ],
      [
        "a",
        "c"
      ],
      [
        "fo",
        "re"
      ],
      [
        "i",
        "c"
      ],
      [
        "e",
        "p"
      ],
      [
        "i",
        "e"
      ],
      [
        "go",
        "od"
      ],
      [
        "s",
        "ay"
      ],
      [
        "u",
        "nd"
      ],
      [
        "I",
        "t"
      ],
      [
        "li",
        "ke"
      ],
      [
        "p",
        "l"
      ],
      [
        "id",
        "e"
      ],
      [
        "o",
        "se"
      ],
      [
        "m",
        "b"
      ],
      [
        "be",
        "en"
      ],
      [
        "le",
        "t"
      ],
      [
        "co",
        "me"
      ],
      [
        "the",
        "e"
      ],
      [
        "i",
        "ve"
      ],
      [
        "ur",
        "n"
      ],
      [
        "o",
        "m"
      ],
      [
        "E",
        "S"
      ],
      [
        "th",
        "an"
      ],
      [
        "ad",
        "e"
      ],
      [
        "or",
        "t"
      ],
      [
        "e",
        "l"
      ],
      [
        "i",
        "er"
      ],
      [
        "a",
        "f"
      ],
      [
        "the",
        "n"
      ],
      [
        "in",
        "ce"
      ],
      [
        "res",
        "s"
      ],
      [
        "O",
        "N"
      ],
      [
        "re",
        "d"
      ],
      [
        "as",
        "s"
      ],
      [
        "e",
        "y"
      ],
      [
        "E",
        "n"
      ],
      [
        "wh",
        "en"
      ],
      [
        "d",
        "ay"
      ],
      [
        "h",
        "and"
      ],
      [
        "re",
        "at"
      ],
      [
        "u",
        "e"
      ],
      [
        "d",
        "is"
      ],
      [
        "C",
        "H"
      ],
      [
        "in",
        "k"
      ],
      [
        "we",
        "ll"
      ],
      [
        "an",
        "y"
      ],
      [
        "it",
        "t"
      ],
      [
        "lo",
        "ve"
      ],
      [
        "a",
        "th"
      ],
      [
        "v",
        "es"
      ],
      [
        "re",
        "t"
      ],
      [
        "s",
        "p"
      ],
      [
        "M",
        "ar"
      ],
      [
        "v",
        "ed"
      ],
      [
        "Y",
        "ou"
      ],
      [
        "m",
        "ed"
      ],
      [
        "ti",
        "me"
      ],
      [
        "ab",
        "le"
      ],
      [
        "s",
        "pe"
      ],
      [
        "P",
        "r"
      ],
      [
        "sh",
        "ould"
      ],
      [
        "it",
        "e"
      ],
      [
        "a",
        "u"
      ],
      [
        "i",
        "g"
      ],
      [
        "I",
        "n"
      ],
      [
        "t",
        "y"
      ],
      [
        "e",
        "ar"
      ],
      [
        "a",
        "ch"
      ],
      [
        "N",
        "o"
      ],
      [
        "re",
        "n"
      ],
      [
        "S",
        "T"
      ],
      [
        "p",
        "p"
      ],
      [
        "v",
        "i"
      ],
      [
        "lo",
        "ok"
      ],
      [
        "oun",
        "t"
      ],
      [
        "ag",
        "ain"
      ],
      [
        "n",
        "a"
      ],
      [
        "an",
        "ce"
      ],
      [
        "W",
        "e"
      ],
      [
        "g",
        "l"
      ],
      [
        "O",
        "R"
      ],
      [
        "h",
        "ere"
      ],
      [
        "o",
        "ld"
      ],
      [
        "v",
        "ing"
      ],
      [
        "po",
        "s"
      ],
      [
        "w",
        "ord"
      ],
      [
        "b",
        "l"
      ],
      [
        "p",
        "le"
      ],
      [
        "ag",
        "e"
      ],
      [
        "n",
        "ess"
      ],
      [
        "T",
        "H"
      ],
      [
        "A",
        "s"
      ],
      [
        "r",
        "ou"
      ],
      [
        "re",
        "ad"
      ],
      [
        "u",
        "se"
      ],
      [
        "p",
        "t"
      ],
      [
        "s",
        "c"
      ],
      [
        "l",
        "ord"
      ],
      [
        "in",
        "to"
      ],
      [
        "at",
        "t"
      ],
      [
        "c",
        "he"
      ],
      [
        "T",
        "his"
      ],
      [
        "i",
        "es"
      ],
      [
        "m",
        "ust"
      ],
      [
        "h",
        "as"
      ],
      [
        "re",
        "e"
      ],
      [
        "R",
        "o"
      ],
      [
        "a",
        "ve"
      ],
      [
        "him",
        "self"
      ],
      [
        "F",
        "or"
      ],
      [
        "l",
        "ong"
      ],
      [
        "re",
        "p"
      ],
      [
        "j",
        "e"
      ],
      [
        "s",
        "er"
      ],
      [
        "is",
        "e"
      ],
      [
        "l",
        "t"
      ],
      [
        "ct",
        "ion"
      ],
      [
        "wh",
        "ere"
      ],
      [
        "f",
        "l"
      ],
      [
        "the",
        "se"
      ],
      [
        "an",
        "g"
      ],
      [
        "ar",
        "m"
      ],
      [
        "d",
        "es"
      ],
      [
        "m",
        "ar"
      ],
      [
        "an",
        "s"
      ],
      [
        "c",
        "ould"
      ],
      [
        "mo",
        "st"
      ],
      [
        "A",
        "L"
      ],
      [
        "it",
        "s"
      ],
      [
        "h",
        "ow"
      ],
      [
        "I",
        "f"
      ],
      [
        "ll",
        "ow"
      ],
      [
        "E",
        "x"
      ],
      [
        "O",
        "L"
      ],
      [
        "m",
        "ay"
      ],
      [
        "d",
        "i"
      ],
      [
        "u",
        "m"
      ],
      [
        "t",
        "wo"
      ],
      [
        "f",
        "ul"
      ],
      [
        "su",
        "ch"
      ],
      [
        "I",
        "I"
      ],
      [
        "at",
        "ed"
      ],
      [
        "En",
        "ter"
      ],
      [
        "e",
        "very"
      ],
      [
        "in",
        "t"
      ],
      [
        "und",
        "er"
      ],
      [
        "u",
        "ll"
      ],
      [
        "thou",
        "ght"
      ],
      [
        "S",
        "o"
      ],
      [
        "S",
        "he"
      ],
      [
        "a",
        "ck"
      ],
      [
        "f",
        "ir"
      ],
      [
        "of",
        "f"
      ],
      [
        "be",
        "g"
      ],
      [
        "m",
        "ake"
      ],
      [
        "s",
        "ir"
      ],
      [
        "M",
        "y"
      ],
      [
        "s",
        "on"
      ],
      [
        "in",
        "c"
      ],
      [
        "he",
        "ad"
      ],
      [
        "g",
        "r"
      ],
      [
        "th",
        "ink"
      ],
      [
        "er",
        "ed"
      ],
      [
        "re",
        "w"
      ],
      [
        "Th",
        "ere"
      ],
      [
        "i",
        "th"
      ],
      [
        "ey",
        "es"
      ],
      [
        "v",
        "o"
      ],
      [
        "i",
        "le"
      ],
      [
        "li",
        "ght"
      ],
      [
        "ri",
        "ght"
      ],
      [
        "on",
        "ly"
      ],
      [
        "o",
        "ver"
      ],
      [
        "u",
        "ch"
      ],
      [
        "up",
        "on"
      ],
      [
        "t",
        "ru"
      ],
      [
        "A",
        "n"
      ],
      [
        "ne",
        "w"
      ],
      [
        "fa",
        "ther"
      ],
      [
        "g",
        "reat"
      ],
      [
        "or",
        "n"
      ],
      [
        "T",
        "ER"
      ],
      [
        "p",
        "a"
      ],
      [
        "w",
        "ard"
      ],
      [
        "m",
        "ade"
      ],
      [
        "i",
        "ce"
      ],
      [
        "L",
        "E"
      ],
      [
        "itt",
        "le"
      ],
      [
        "l",
        "ess"
      ],
      [
        "be",
        "t"
      ],
      [
        "B",
        "e"
      ],
      [
        "en",
        "e"
      ],
      [
        "c",
        "all"
      ],
      [
        "ab",
        "out"
      ],
      [
        "k",
        "ing"
      ],
      [
        "to",
        "o"
      ],
      [
        "c",
        "ed"
      ],
      [
        "ier",
        "re"
      ],
      [
        "p",
        "art"
      ],
      [
        "li",
        "fe"
      ],
      [
        "i",
        "us"
      ],
      [
        "f",
        "t"
      ],
      [
        "n",
        "ight"
      ],
      [
        "l",
        "ittle"
      ],
      [
        "P",
        "ierre"
      ],
      [
        "con",
        "t"
      ],
      [
        "be",
        "fore"
      ],
      [
        "I",
        "O"
      ],
      [
        "as",
        "e"
      ],
      [
        "ar",
        "s"
      ],
      [
        "c",
        "es"
      ],
      [
        "com",
        "m"
      ],
      [
        "he",
        "art"
      ],
      [
        "i",
        "ld"
      ],
      [
        "un",
        "t"
      ],
      [
        "w",
        "ent"
      ],
      [
        "c",
        "l"
      ],
      [
        "Pr",
        "ince"
      ],
      [
        "H",
        "ow"
      ],
      [
        "spe",
        "ak"
      ],
      [
        "h",
        "on"
      ],
      [
        "st",
        "and"
      ],
      [
        "s",
        "to"
      ],
      [
        "e",
        "ven"
      ],
      [
        "IN",
        "G"
      ],
      [
        "c",
        "ount"
      ],
      [
        "b",
        "ro"
      ],
      [
        "o",
        "t"
      ],
      [
        "m",
        "er"
      ],
      [
        "te",
        "ll"
      ],
      [
        "A",
        "P"
      ],
      [
        "ne",
        "ver"
      ],
      [
        "e",
        "ver"
      ],
      [
        "p",
        "re"
      ],
      [
        "ou",
        "se"
      ],
      [
        "th",
        "ose"
      ],
      [
        "E",
        "L"
      ],
      [
        "d",
        "own"
      ],
      [
        "s",
        "m"
      ],
      [
        "e",
        "v"
      ],
      [
        "t",
        "ake"
      ],
      [
        "on",
        "d"
      ],
      [
        "The",
        "y"
      ],
      [
        "p",
        "la"
      ],
      [
        "p",
        "ass"
      ],
      [
        "R",
        "O"
      ],
      [
        "c",
        "er"
      ],
      [
        "b",
        "re"
      ],
      [
        "m",
        "uch"
      ],
      [
        "y",
        "et"
      ],
      [
        "fa",
        "ce"
      ],
      [
        "ha",
        "th"
      ],
      [
        "st",
        "ill"
      ],
      [
        "g",
        "ra"
      ],
      [
        "k",
        "ed"
      ],
      [
        "t",
        "urn"
      ],
      [
        "u",
        "d"
      ],
      [
        "c",
        "lo"
      ],
      [
        "ar",
        "y"
      ],
      [
        "b",
        "r"
      ],
      [
        "Wh",
        "y"
      ],
      [
        "p",
        "s"
      ],
      [
        "fir",
        "st"
      ],
      [
        "l",
        "ed"
      ],
      [
        "Wh",
        "en"
      ],
      [
        "af",
        "ter"
      ],
      [
        "ca",
        "me"
      ],
      [
        "a",
        "way"
      ],
      [
        "g",
        "ive"
      ],
      [
        "f",
        "ri"
      ],
      [
        "at",
        "ter"
      ],
      [
        "no",
        "thing"
      ],
      [
        "h",
        "or"
      ],
      [
        "with",
        "out"
      ],
      [
        "C",
        "o"
      ],
      [
        "ou",
        "l"
      ],
      [
        "be",
        "ing"
      ],
      [
        "g",
        "ent"
      ],
      [
        "ar",
        "ri"
      ],
      [
        "sa",
        "me"
      ],
      [
        "I",
        "A"
      ],
      [
        "i",
        "re"
      ],
      [
        "h",
        "ouse"
      ],
      [
        "M",
        "o"
      ],
      [
        "t",
        "ain"
      ],
      [
        "all",
        "y"
      ],
      [
        "p",
        "res"
      ],
      [
        "f",
        "er"
      ],
      [
        "d",
        "en"
      ],
      [
        "I",
        "R"
      ],
      [
        "ro",
        "om"
      ],
      [
        "as",
        "ter"
      ],
      [
        "ca",
        "use"
      ],
      [
        "j",
        "ust"
      ],
      [
        "h",
        "i"
      ],
      [
        "g",
        "u"
      ],
      [
        "G",
        "o"
      ],
      [
        "ig",
        "n"
      ],
      [
        "fri",
        "end"
      ],
      [
        "G",
        "od"
      ],
      [
        "K",
        "ING"
      ],
      [
        "s",
        "s"
      ],
      [
        "ren",
        "ch"
      ],
      [
        "ha",
        "pp"
      ],
      [
        "j",
        "o"
      ],
      [
        "Th",
        "ou"
      ],
      [
        "ion",
        "s"
      ],
      [
        "m",
        "on"
      ],
      [
        "l",
        "es"
      ],
      [
        "s",
        "we"
      ],
      [
        "li",
        "e"
      ],
      [
        "b",
        "ack"
      ],
      [
        "L",
        "O"
      ],
      [
        "W",
        "ith"
      ],
      [
        "k",
        "s"
      ],
      [
        "ch",
        "ild"
      ],
      [
        "I",
        "US"
      ],
      [
        "CH",
        "AP"
      ],
      [
        "CHAP",
        "TER"
      ],
      [
        "he",
        "a"
      ],
      [
        "a",
        "ce"
      ],
      [
        "t",
        "ri"
      ],
      [
        "he",
        "ar"
      ],
      [
        "b",
        "ed"
      ],
      [
        "you",
        "n"
      ],
      [
        "b",
        "lo"
      ],
      [
        "youn",
        "g"
      ],
      [
        "se",
        "t"
      ],
      [
        "i",
        "z"
      ],
      [
        "w",
        "r"
      ],
      [
        "rou",
        "gh"
      ],
      [
        "fa",
        "ir"
      ],
      [
        "f",
        "ull"
      ],
      [
        "m",
        "a"
      ],
      [
        "en",
        "ed"
      ],
      [
        "s",
        "k"
      ],
      [
        "for",
        "t"
      ],
      [
        "K",
        "ing"
      ],
      [
        "F",
        "rench"
      ],
      [
        "J",
        "e"
      ],
      [
        "g",
        "et"
      ],
      [
        "t",
        "ra"
      ],
      [
        "m",
        "ight"
      ],
      [
        "L",
        "et"
      ],
      [
        "de",
        "ath"
      ],
      [
        "or",
        "y"
      ],
      [
        "p",
        "ut"
      ],
      [
        "ing",
        "s"
      ],
      [
        "p",
        "ar"
      ],
      [
        "Mar",
        "ius"
      ],
      [
        "A",
        "t"
      ],
      [
        "ct",
        "ed"
      ],
      [
        "thou",
        "gh"
      ],
      [
        "e",
        "m"
      ],
      [
        "c",
        "our"
      ],
      [
        "mb",
        "er"
      ],
      [
        "d",
        "ra"
      ],
      [
        "re",
        "st"
      ],
      [
        "con",
        "s"
      ],
      [
        "g",
        "en"
      ],
      [
        "N",
        "at"
      ],
      [
        "ain",
        "t"
      ],
      [
        "re",
        "m"
      ],
      [
        "p",
        "ress"
      ],
      [
        "ho",
        "ld"
      ],
      [
        "l",
        "ad"
      ],
      [
        "on",
        "t"
      ],
      [
        "D",
        "o"
      ],
      [
        "O",
        "f"
      ],
      [
        "is",
        "s"
      ],
      [
        "row",
        "n"
      ],
      [
        "t",
        "ak"
      ],
      [
        "na",
        "me"
      ],
      [
        "I",
        "s"
      ],
      [
        "Th",
        "en"
      ],
      [
        "O",
        "n"
      ],
      [
        "g",
        "i"
      ],
      [
        "m",
        "ine"
      ],
      [
        "n",
        "or"
      ],
      [
        "op",
        "le"
      ],
      [
        "ow",
        "er"
      ],
      [
        "H",
        "is"
      ],
      [
        "in",
        "s"
      ],
      [
        "c",
        "le"
      ],
      [
        "á",
        "sha"
      ],
      [
        "c",
        "ha"
      ],
      [
        "p",
        "h"
      ],
      [
        "v",
        "ent"
      ],
      [
        "d",
        "one"
      ],
      [
        "i",
        "ck"
      ],
      [
        "gent",
        "le"
      ],
      [
        "T",
        "I"
      ],
      [
        "We",
        "ll"
      ],
      [
        "ap",
        "pe"
      ],
      [
        "on",
        "ce"
      ],
      [
        "in",
        "ter"
      ],
      [
        "an",
        "other"
      ],
      [
        "pla",
        "ce"
      ],
      [
        "V",
        "al"
      ],
      [
        "o",
        "b"
      ],
      [
        "Je",
        "an"
      ],
      [
        "ish",
        "ed"
      ],
      [
        "e",
        "f"
      ],
      [
        "le",
        "ft"
      ],
      [
        "b",
        "er"
      ],
      [
        "Co",
        "me"
      ],
      [
        "blo",
        "od"
      ],
      [
        "Nat",
        "ásha"
      ],
      [
        "mo",
        "ment"
      ],
      [
        "he",
        "ard"
      ],
      [
        "word",
        "s"
      ],
      [
        "A",
        "M"
      ],
      [
        "th",
        "rough"
      ],
      [
        "pe",
        "ople"
      ],
      [
        "t",
        "al"
      ],
      [
        "g",
        "n"
      ],
      [
        "re",
        "as"
      ],
      [
        "d",
        "u"
      ],
      [
        "it",
        "ion"
      ],
      [
        "v",
        "is"
      ],
      [
        "at",
        "ch"
      ],
      [
        "AR",
        "D"
      ],
      [
        "A",
        "ll"
      ],
      [
        "N",
        "ow"
      ],
      [
        "for",
        "m"
      ],
      [
        "And",
        "rew"
      ],
      [
        "wo",
        "man"
      ],
      [
        "c",
        "c"
      ],
      [
        "gh",
        "ter"
      ],
      [
        "Wh",
        "ere"
      ],
      [
        "or",
        "s"
      ],
      [
        "w",
        "ar"
      ],
      [
        "t",
        "en"
      ],
      [
        "s",
        "oul"
      ],
      [
        "of",
        "fi"
      ],
      [
        "ad",
        "d"
      ],
      [
        "wor",
        "ld"
      ],
      [
        "i",
        "ther"
      ],
      [
        "i",
        "ous"
      ],
      [
        "p",
        "ri"
      ],
      [
        "ó",
        "v"
      ],
      [
        "are",
        "d"
      ],
      [
        "u",
        "ne"
      ],
      [
        "Ex",
        "e"
      ],
      [
        "c",
        "ri"
      ],
      [
        "R",
        "I"
      ],
      [
        "f",
        "all"
      ],
      [
        "I",
        "L"
      ],
      [
        "ES",
        "S"
      ],
      [
        "who",
        "m"
      ],
      [
        "ent",
        "ly"
      ],
      [
        "g",
        "ed"
      ],
      [
        "tru",
        "e"
      ],
      [
        "at",
        "er"
      ],
      [
        "je",
        "an"
      ],
      [
        "or",
        "row"
      ],
      [
        "fo",
        "llow"
      ],
      [
        "c",
        "y"
      ],
      [
        "Val",
        "jean"
      ],
      [
        "L",
        "A"
      ],
      [
        "t",
        "im"
      ],
      [
        "Wh",
        "o"
      ],
      [
        "a",
        "ir"
      ],
      [
        "p",
        "ur"
      ],
      [
        "la",
        "ck"
      ],
      [
        "Exe",
        "unt"
      ],
      [
        "some",
        "thing"
      ],
      [
        "inc",
        "ess"
      ],
      [
        "EN",
        "E"
      ],
      [
        "d",
        "ist"
      ],
      [
        "com",
        "p"
      ],
      [
        "th",
        "ree"
      ],
      [
        "so",
        "ld"
      ],
      [
        "l",
        "ast"
      ],
      [
        "B",
        "y"
      ],
      [
        "po",
        "int"
      ],
      [
        "h",
        "our"
      ],
      [
        "ne",
        "ar"
      ],
      [
        "fe",
        "ar"
      ],
      [
        "t",
        "te"
      ],
      [
        "re",
        "g"
      ],
      [
        "can",
        "not"
      ],
      [
        "sa",
        "w"
      ],
      [
        "w",
        "a"
      ],
      [
        "O",
        "r"
      ],
      [
        "us",
        "h"
      ],
      [
        "b",
        "es"
      ],
      [
        "v",
        "al"
      ],
      [
        "l",
        "and"
      ],
      [
        "se",
        "en"
      ],
      [
        "g",
        "a"
      ],
      [
        "on",
        "s"
      ],
      [
        "er",
        "al"
      ],
      [
        "w",
        "er"
      ],
      [
        "ple",
        "as"
      ],
      [
        "ter",
        "s"
      ],
      [
        "man",
        "y"
      ],
      [
        "s",
        "ide"
      ],
      [
        "in",
        "ess"
      ],
      [
        "to",
        "ok"
      ],
      [
        "ar",
        "k"
      ],
      [
        "Wh",
        "ich"
      ],
      [
        "m",
        "ind"
      ],
      [
        "Ex",
        "it"
      ],
      [
        "A",
        "T"
      ],
      [
        "S",
        "E"
      ],
      [
        "bo",
        "th"
      ],
      [
        "read",
        "y"
      ],
      [
        "y",
        "ear"
      ],
      [
        "see",
        "med"
      ],
      [
        "hea",
        "ven"
      ],
      [
        "mo",
        "ther"
      ],
      [
        "do",
        "or"
      ],
      [
        "t",
        "s"
      ],
      [
        "C",
        "E"
      ],
      [
        "f",
        "ind"
      ],
      [
        "m",
        "in"
      ],
      [
        "n",
        "at"
      ],
      [
        "who",
        "le"
      ],
      [
        "C",
        "ose"
      ],
      [
        "im",
        "p"
      ],
      [
        "way",
        "s"
      ],
      [
        "Cose",
        "tte"
      ],
      [
        "H",
        "ere"
      ],
      [
        "n",
        "ing"
      ],
      [
        "ou",
        "d"
      ],
      [
        "bro",
        "ther"
      ],
      [
        "con",
        "f"
      ],
      [
        "ret",
        "urn"
      ],
      [
        "again",
        "st"
      ],
      [
        "beg",
        "an"
      ],
      [
        "s",
        "ing"
      ],
      [
        "sh",
        "ow"
      ],
      [
        "ci",
        "ous"
      ],
      [
        "fe",
        "lt"
      ],
      [
        "po",
        "or"
      ],
      [
        "su",
        "b"
      ],
      [
        "je",
        "ct"
      ],
      [
        "ant",
        "s"
      ],
      [
        "w",
        "ind"
      ],
      [
        "AN",
        "T"
      ],
      [
        "E",
        "m"
      ],
      [
        "st",
        "óv"
      ],
      [
        "la",
        "u"
      ],
      [
        "r",
        "un"
      ],
      [
        "re",
        "et"
      ],
      [
        "S",
        "C"
      ],
      [
        "m",
        "s"
      ],
      [
        "Ro",
        "stóv"
      ],
      [
        "qu",
        "est"
      ],
      [
        "t",
        "a"
      ],
      [
        "s",
        "il"
      ],
      [
        "com",
        "es"
      ],
      [
        "sel",
        "ves"
      ],
      [
        "pr",
        "ay"
      ],
      [
        "wi",
        "fe"
      ],
      [
        "de",
        "ad"
      ],
      [
        "ti",
        "ll"
      ],
      [
        "swe",
        "et"
      ],
      [
        "do",
        "th"
      ],
      [
        "s",
        "ur"
      ],
      [
        "tim",
        "es"
      ],
      [
        "L",
        "ord"
      ],
      [
        "wh",
        "ile"
      ],
      [
        "S",
        "ir"
      ],
      [
        "t",
        "ed"
      ],
      [
        "de",
        "ar"
      ],
      [
        "vo",
        "ice"
      ],
      [
        "le",
        "ave"
      ],
      [
        "m",
        "aster"
      ],
      [
        "in",
        "st"
      ],
      [
        "te",
        "m"
      ],
      [
        "ch",
        "ar"
      ],
      [
        "A",
        "C"
      ],
      [
        "s",
        "po"
      ],
      [
        "s",
        "le"
      ],
      [
        "i",
        "p"
      ],
      [
        "la",
        "w"
      ],
      [
        "l",
        "ing"
      ],
      [
        "st",
        "r"
      ],
      [
        "I",
        "C"
      ],
      [
        "c",
        "ur"
      ],
      [
        "k",
        "ind"
      ],
      [
        "us",
        "ed"
      ],
      [
        "b",
        "od"
      ],
      [
        "i",
        "ly"
      ],
      [
        "U",
        "C"
      ],
      [
        "s",
        "and"
      ],
      [
        "ation",
        "s"
      ],
      [
        "b",
        "u"
      ],
      [
        "si",
        "ble"
      ],
      [
        "O",
        "F"
      ],
      [
        "m",
        "ad"
      ],
      [
        "dra",
        "w"
      ],
      [
        "r",
        "ound"
      ],
      [
        "ch",
        "o"
      ],
      [
        "n",
        "er"
      ],
      [
        "t",
        "on"
      ],
      [
        "th",
        "us"
      ],
      [
        "is",
        "on"
      ],
      [
        "be",
        "ar"
      ],
      [
        "ver",
        "s"
      ],
      [
        "au",
        "ghter"
      ],
      [
        "AN",
        "D"
      ],
      [
        "comm",
        "and"
      ],
      [
        "m",
        "ak"
      ],
      [
        "bet",
        "ter"
      ],
      [
        "f",
        "ar"
      ],
      [
        "ó",
        "n"
      ],
      [
        "l",
        "ow"
      ],
      [
        "s",
        "ent"
      ],
      [
        "l",
        "f"
      ],
      [
        "h",
        "us"
      ],
      [
        "us",
        "si"
      ],
      [
        "Y",
        "our"
      ],
      [
        "w",
        "ant"
      ],
      [
        "pl",
        "ay"
      ],
      [
        "t",
        "is"
      ],
      [
        "so",
        "l"
      ],
      [
        "as",
        "ked"
      ],
      [
        "fe",
        "el"
      ],
      [
        "l",
        "ay"
      ],
      [
        "d",
        "aughter"
      ],
      [
        "m",
        "atter"
      ],
      [
        "thing",
        "s"
      ],
      [
        "look",
        "ed"
      ],
      [
        "ce",
        "i"
      ],
      [
        "b",
        "ur"
      ],
      [
        "we",
        "en"
      ],
      [
        "E",
        "D"
      ],
      [
        "c",
        "ent"
      ],
      [
        "c",
        "ul"
      ],
      [
        "O",
        "ne"
      ],
      [
        "U",
        "R"
      ],
      [
        "st",
        "ran"
      ],
      [
        "li",
        "ve"
      ],
      [
        "do",
        "es"
      ],
      [
        "in",
        "ed"
      ],
      [
        "D",
        "u"
      ],
      [
        "b",
        "and"
      ],
      [
        "g",
        "er"
      ],
      [
        "c",
        "al"
      ],
      [
        "SC",
        "ENE"
      ],
      [
        "s",
        "en"
      ],
      [
        "ar",
        "my"
      ],
      [
        "A",
        "l"
      ],
      [
        "Y",
        "es"
      ],
      [
        "b",
        "att"
      ],
      [
        "h",
        "ind"
      ],
      [
        "call",
        "ed"
      ],
      [
        "rem",
        "ain"
      ],
      [
        "ran",
        "ce"
      ],
      [
        "ord",
        "er"
      ],
      [
        "ce",
        "pt"
      ],
      [
        "ct",
        "or"
      ],
      [
        "p",
        "ed"
      ],
      [
        "ro",
        "ss"
      ],
      [
        "f",
        "ound"
      ],
      [
        "my",
        "self"
      ],
      [
        "gen",
        "eral"
      ],
      [
        "F",
        "F"
      ],
      [
        "S",
        "c"
      ],
      [
        "hand",
        "s"
      ],
      [
        "ha",
        "ving"
      ],
      [
        "b",
        "it"
      ],
      [
        "e",
        "ld"
      ],
      [
        "al",
        "ways"
      ],
      [
        "cer",
        "tain"
      ],
      [
        "pe",
        "ct"
      ],
      [
        "o",
        "ve"
      ],
      [
        "e",
        "ach"
      ],
      [
        "s",
        "at"
      ],
      [
        "per",
        "or"
      ],
      [
        "jo",
        "y"
      ],
      [
        "a",
        "po"
      ],
      [
        "b",
        "ra"
      ],
      [
        "is",
        "ter"
      ],
      [
        "me",
        "an"
      ],
      [
        "c",
        "ess"
      ],
      [
        "hon",
        "our"
      ],
      [
        "be",
        "cause"
      ],
      [
        "ut",
        "e"
      ],
      [
        "l",
        "s"
      ],
      [
        "de",
        "ed"
      ],
      [
        "con",
        "d"
      ],
      [
        "to",
        "ld"
      ],
      [
        "as",
        "h"
      ],
      [
        "wor",
        "k"
      ],
      [
        "R",
        "ussi"
      ],
      [
        "ne",
        "ed"
      ],
      [
        "at",
        "i"
      ],
      [
        "P",
        "H"
      ],
      [
        "ke",
        "ep"
      ],
      [
        "C",
        "h"
      ],
      [
        "F",
        "IR"
      ],
      [
        "he",
        "l"
      ],
      [
        "FIR",
        "ST"
      ],
      [
        "id",
        "es"
      ],
      [
        "o",
        "cc"
      ],
      [
        "a",
        "v"
      ],
      [
        "turn",
        "ed"
      ],
      [
        "lad",
        "y"
      ],
      [
        "a",
        "w"
      ],
      [
        "fe",
        "ct"
      ],
      [
        "per",
        "son"
      ],
      [
        "E",
        "T"
      ],
      [
        "i",
        "gh"
      ],
      [
        "st",
        "er"
      ],
      [
        "thou",
        "sand"
      ],
      [
        "li",
        "c"
      ],
      [
        "a",
        "ct"
      ],
      [
        "at",
        "ing"
      ],
      [
        "pres",
        "ent"
      ],
      [
        "w",
        "all"
      ],
      [
        "fe",
        "llow"
      ],
      [
        "I",
        "S"
      ],
      [
        "m",
        "is"
      ],
      [
        "s",
        "es"
      ],
      [
        "i",
        "ers"
      ],
      [
        "qu",
        "e"
      ],
      [
        "bod",
        "y"
      ],
      [
        "Q",
        "U"
      ],
      [
        "g",
        "one"
      ],
      [
        "é",
        "n"
      ],
      [
        "En",
        "gl"
      ],
      [
        "bet",
        "ween"
      ],
      [
        "f",
        "in"
      ],
      [
        "s",
        "ound"
      ],
      [
        "he",
        "s"
      ],
      [
        "ut",
        "y"
      ],
      [
        "k",
        "new"
      ],
      [
        "ch",
        "ed"
      ],
      [
        "ey",
        "e"
      ],
      [
        "hi",
        "gh"
      ],
      [
        "f",
        "our"
      ],
      [
        "end",
        "ed"
      ],
      [
        "le",
        "on"
      ],
      [
        "u",
        "b"
      ],
      [
        "P",
        "ro"
      ],
      [
        "so",
        "v"
      ],
      [
        "fo",
        "ol"
      ],
      [
        "pos",
        "sible"
      ],
      [
        "d",
        "ie"
      ],
      [
        "ou",
        "gh"
      ],
      [
        "EN",
        "T"
      ],
      [
        "E",
        "M"
      ],
      [
        "to",
        "ward"
      ],
      [
        "ow",
        "s"
      ],
      [
        "Sc",
        "ene"
      ],
      [
        "no",
        "ble"
      ],
      [
        "su",
        "f"
      ],
      [
        "arm",
        "s"
      ],
      [
        "II",
        "I"
      ],
      [
        "sc",
        "ow"
      ],
      [
        "H",
        "er"
      ],
      [
        "T",
        "is"
      ],
      [
        "st",
        "ra"
      ],
      [
        "st",
        "reet"
      ],
      [
        "fi",
        "re"
      ],
      [
        "re",
        "me"
      ],
      [
        "ent",
        "er"
      ],
      [
        "ie",
        "f"
      ],
      [
        "who",
        "se"
      ],
      [
        "k",
        "ill"
      ],
      [
        "li",
        "ed"
      ],
      [
        "d",
        "ou"
      ],
      [
        "Em",
        "peror"
      ],
      [
        "h",
        "u"
      ],
      [
        "i",
        "o"
      ],
      [
        "t",
        "ing"
      ],
      [
        "go",
        "ing"
      ],
      [
        "hor",
        "se"
      ],
      [
        "D",
        "U"
      ],
      [
        "c",
        "or"
      ],
      [
        "d",
        "den"
      ],
      [
        "N",
        "apo"
      ],
      [
        "d",
        "on"
      ],
      [
        "d",
        "er"
      ],
      [
        "p",
        "ower"
      ],
      [
        "go",
        "t"
      ],
      [
        "long",
        "er"
      ],
      [
        "under",
        "stand"
      ],
      [
        "Mo",
        "scow"
      ],
      [
        "reas",
        "on"
      ],
      [
        "A",
        "r"
      ],
      [
        "A",
        "y"
      ],
      [
        "No",
        "t"
      ],
      [
        "S",
        "t"
      ],
      [
        "bo",
        "y"
      ],
      [
        "Napo",
        "leon"
      ],
      [
        "at",
        "es"
      ],
      [
        "c",
        "ut"
      ],
      [
        "Du",
        "ke"
      ],
      [
        "p",
        "et"
      ],
      [
        "ment",
        "s"
      ],
      [
        "is",
        "ed"
      ],
      [
        "P",
        "ar"
      ],
      [
        "m",
        "ist"
      ],
      [
        "ent",
        "s"
      ],
      [
        "Go",
        "od"
      ],
      [
        "ex",
        "press"
      ],
      [
        "c",
        "oun"
      ],
      [
        "vi",
        "ce"
      ],
      [
        "n",
        "ed"
      ],
      [
        "for",
        "th"
      ],
      [
        "o",
        "v"
      ],
      [
        "al",
        "one"
      ],
      [
        "sp",
        "ir"
      ],
      [
        "v",
        "ill"
      ],
      [
        "k",
        "en"
      ],
      [
        "su",
        "re"
      ],
      [
        "ha",
        "ll"
      ],
      [
        "I",
        "V"
      ],
      [
        "b",
        "us"
      ],
      [
        "el",
        "se"
      ],
      [
        "qu",
        "i"
      ],
      [
        "be",
        "a"
      ],
      [
        "su",
        "dden"
      ],
      [
        "C",
        "ON"
      ],
      [
        "b",
        "est"
      ],
      [
        "r",
        "ust"
      ],
      [
        "v",
        "ir"
      ],
      [
        "C",
        "A"
      ],
      [
        "fo",
        "ot"
      ],
      [
        "a",
        "ther"
      ],
      [
        "g",
        "ave"
      ],
      [
        "ha",
        "lf"
      ],
      [
        "be",
        "hind"
      ],
      [
        "op",
        "en"
      ],
      [
        "p",
        "en"
      ],
      [
        "year",
        "s"
      ],
      [
        "h",
        "ast"
      ],
      [
        "every",
        "thing"
      ],
      [
        "F",
        "rom"
      ],
      [
        "pl",
        "ain"
      ],
      [
        "Mar",
        "y"
      ],
      [
        "me",
        "et"
      ],
      [
        "si",
        "gn"
      ],
      [
        "c",
        "are"
      ],
      [
        "s",
        "ort"
      ],
      [
        "W",
        "ill"
      ],
      [
        "pe",
        "ace"
      ],
      [
        "cont",
        "in"
      ],
      [
        "w",
        "it"
      ],
      [
        "ke",
        "t"
      ],
      [
        "P",
        "e"
      ],
      [
        "wh",
        "y"
      ],
      [
        "st",
        "ep"
      ],
      [
        "batt",
        "le"
      ],
      [
        "s",
        "ince"
      ],
      [
        "t",
        "end"
      ],
      [
        "ro",
        "y"
      ],
      [
        "g",
        "ir"
      ],
      [
        "che",
        "s"
      ],
      [
        "b",
        "lack"
      ],
      [
        "u",
        "ck"
      ],
      [
        "ll",
        "e"
      ],
      [
        "OR",
        "D"
      ],
      [
        "c",
        "la"
      ],
      [
        "al",
        "ready"
      ],
      [
        "po",
        "se"
      ],
      [
        "R",
        "ue"
      ],
      [
        "tak",
        "en"
      ],
      [
        "m",
        "orn"
      ],
      [
        "re",
        "am"
      ],
      [
        "pr",
        "ison"
      ],
      [
        "know",
        "n"
      ],
      [
        "hus",
        "band"
      ],
      [
        "happ",
        "y"
      ],
      [
        "w",
        "he"
      ],
      [
        "ol",
        "as"
      ],
      [
        "pp",
        "ed"
      ],
      [
        "N",
        "ich"
      ],
      [
        "ho",
        "me"
      ],
      [
        "Nich",
        "olas"
      ],
      [
        "her",
        "self"
      ],
      [
        "ac",
        "c"
      ],
      [
        "ear",
        "th"
      ],
      [
        "st",
        "ate"
      ],
      [
        "s",
        "un"
      ],
      [
        "co",
        "ld"
      ],
      [
        "f",
        "r"
      ],
      [
        "C",
        "a"
      ],
      [
        "i",
        "an"
      ],
      [
        "v",
        "ant"
      ],
      [
        "an",
        "ge"
      ],
      [
        "ul",
        "t"
      ],
      [
        "di",
        "re"
      ],
      [
        "it",
        "self"
      ],
      [
        "u",
        "f"
      ],
      [
        "F",
        "rance"
      ],
      [
        "d",
        "if"
      ],
      [
        "mo",
        "ve"
      ],
      [
        "let",
        "ter"
      ],
      [
        "them",
        "selves"
      ],
      [
        "pr",
        "ince"
      ],
      [
        "Pr",
        "incess"
      ],
      [
        "re",
        "l"
      ],
      [
        "So",
        "me"
      ],
      [
        "g",
        "ri"
      ],
      [
        "w",
        "ish"
      ],
      [
        "er",
        "y"
      ],
      [
        "t",
        "ong"
      ],
      [
        "w",
        "ound"
      ],
      [
        "g",
        "s"
      ],
      [
        "TH",
        "E"
      ],
      [
        "re",
        "f"
      ],
      [
        "wh",
        "ite"
      ],
      [
        "any",
        "thing"
      ],
      [
        "as",
        "k"
      ],
      [
        "sh",
        "ip"
      ],
      [
        "other",
        "s"
      ],
      [
        "sm",
        "ile"
      ],
      [
        "ans",
        "wer"
      ],
      [
        "h",
        "ard"
      ],
      [
        "al",
        "most"
      ],
      [
        "c",
        "ar"
      ],
      [
        "sle",
        "ep"
      ],
      [
        "M",
        "AR"
      ],
      [
        "rep",
        "lied"
      ],
      [
        "to",
        "w"
      ],
      [
        "ca",
        "p"
      ],
      [
        "M",
        "ade"
      ],
      [
        "it",
        "ed"
      ],
      [
        "et",
        "y"
      ],
      [
        "rou",
        "ght"
      ],
      [
        "to",
        "m"
      ],
      [
        "friend",
        "s"
      ],
      [
        "N",
        "or"
      ],
      [
        "K",
        "E"
      ],
      [
        "U",
        "n"
      ],
      [
        "st",
        "e"
      ],
      [
        "day",
        "s"
      ],
      [
        "s",
        "ed"
      ],
      [
        "co",
        "ver"
      ],
      [
        "Ro",
        "me"
      ],
      [
        "i",
        "ed"
      ],
      [
        "ck",
        "s"
      ],
      [
        "b",
        "t"
      ],
      [
        "f",
        "am"
      ],
      [
        "he",
        "ld"
      ],
      [
        "M",
        "on"
      ],
      [
        "d",
        "est"
      ],
      [
        "g",
        "all"
      ],
      [
        "l",
        "ar"
      ],
      [
        "w",
        "al"
      ],
      [
        "li",
        "es"
      ],
      [
        "Th",
        "an"
      ],
      [
        "cei",
        "ved"
      ],
      [
        "v",
        "ol"
      ],
      [
        "br",
        "ing"
      ],
      [
        "Par",
        "is"
      ],
      [
        "t",
        "ro"
      ],
      [
        "c",
        "arri"
      ],
      [
        "x",
        "t"
      ],
      [
        "r",
        "ing"
      ],
      [
        "st",
        "ay"
      ],
      [
        "fa",
        "ct"
      ],
      [
        "morn",
        "ing"
      ],
      [
        "sh",
        "o"
      ],
      [
        "sh",
        "out"
      ],
      [
        "B",
        "E"
      ],
      [
        "H",
        "ave"
      ],
      [
        "ach",
        "ed"
      ],
      [
        "r",
        "id"
      ],
      [
        "ST",
        "A"
      ],
      [
        "R",
        "e"
      ],
      [
        "z",
        "e"
      ],
      [
        "The",
        "se"
      ],
      [
        "f",
        "re"
      ],
      [
        "de",
        "v"
      ],
      [
        "Th",
        "én"
      ],
      [
        "Thén",
        "ard"
      ],
      [
        "m",
        "and"
      ],
      [
        "A",
        "h"
      ],
      [
        "b",
        "an"
      ],
      [
        "und",
        "red"
      ],
      [
        "with",
        "in"
      ],
      [
        "ard",
        "s"
      ],
      [
        "stran",
        "ge"
      ],
      [
        "B",
        "ER"
      ],
      [
        "ch",
        "ief"
      ],
      [
        "quest",
        "ion"
      ],
      [
        "d",
        "ark"
      ],
      [
        "k",
        "iss"
      ],
      [
        "s",
        "l"
      ],
      [
        "y",
        "e"
      ],
      [
        "lo",
        "st"
      ],
      [
        "ap",
        "pro"
      ],
      [
        "l",
        "ist"
      ],
      [
        "ho",
        "pe"
      ],
      [
        "t",
        "re"
      ],
      [
        "g",
        "ar"
      ],
      [
        "so",
        "on"
      ],
      [
        "bre",
        "ak"
      ],
      [
        "il",
        "ed"
      ],
      [
        "n",
        "one"
      ],
      [
        "h",
        "undred"
      ],
      [
        "ge",
        "ther"
      ],
      [
        "L",
        "e"
      ],
      [
        "U",
        "T"
      ],
      [
        "ir",
        "d"
      ],
      [
        "j",
        "est"
      ],
      [
        "ri",
        "ed"
      ],
      [
        "full",
        "y"
      ],
      [
        "lau",
        "gh"
      ],
      [
        "g",
        "od"
      ],
      [
        "it",
        "u"
      ],
      [
        "b",
        "ar"
      ],
      [
        "ro",
        "ad"
      ],
      [
        "iz",
        "ed"
      ],
      [
        "ut",
        "ter"
      ],
      [
        "we",
        "l"
      ],
      [
        "su",
        "m"
      ],
      [
        "ho",
        "p"
      ],
      [
        "r",
        "as"
      ],
      [
        "wr",
        "ong"
      ],
      [
        "L",
        "o"
      ],
      [
        "qu",
        "ite"
      ],
      [
        "sudden",
        "ly"
      ],
      [
        "ou",
        "ght"
      ],
      [
        "nat",
        "ure"
      ],
      [
        "contin",
        "u"
      ],
      [
        "J",
        "a"
      ],
      [
        "y",
        "a"
      ],
      [
        "sto",
        "od"
      ],
      [
        "his",
        "t"
      ],
      [
        "fi",
        "eld"
      ],
      [
        "st",
        "ri"
      ],
      [
        "st",
        "ru"
      ],
      [
        "c",
        "u"
      ],
      [
        "pass",
        "ed"
      ],
      [
        "c",
        "r"
      ],
      [
        "to",
        "gether"
      ],
      [
        "qu",
        "ar"
      ],
      [
        "tru",
        "th"
      ],
      [
        "e",
        "e"
      ],
      [
        "p",
        "on"
      ],
      [
        "f",
        "ree"
      ],
      [
        "b",
        "rought"
      ],
      [
        "tal",
        "k"
      ],
      [
        "co",
        "l"
      ],
      [
        "ev",
        "id"
      ],
      [
        "ang",
        "er"
      ],
      [
        "cla",
        "im"
      ],
      [
        "be",
        "lie"
      ],
      [
        "d",
        "ro"
      ],
      [
        "ra",
        "ther"
      ],
      [
        "g",
        "ain"
      ],
      [
        "one",
        "y"
      ],
      [
        "offi",
        "cer"
      ],
      [
        "sold",
        "iers"
      ],
      [
        "gi",
        "ven"
      ],
      [
        "RI",
        "CH"
      ],
      [
        "S",
        "S"
      ],
      [
        "fe",
        "w"
      ],
      [
        "B",
        "O"
      ],
      [
        "ú",
        "z"
      ],
      [
        "IN",
        "E"
      ],
      [
        "C",
        "ount"
      ],
      [
        "me",
        "t"
      ],
      [
        "K",
        "ut"
      ],
      [
        "N",
        "ay"
      ],
      [
        "b",
        "id"
      ],
      [
        "gra",
        "ce"
      ],
      [
        "f",
        "ur"
      ],
      [
        "ma",
        "id"
      ],
      [
        "B",
        "o"
      ],
      [
        "m",
        "id"
      ],
      [
        "at",
        "s"
      ],
      [
        "f",
        "al"
      ],
      [
        "p",
        "ra"
      ],
      [
        "al",
        "so"
      ],
      [
        "Thénard",
        "ier"
      ],
      [
        "U",
        "L"
      ],
      [
        "úz",
        "ov"
      ],
      [
        "Kut",
        "úzov"
      ],
      [
        "CON",
        "D"
      ],
      [
        "M",
        "AN"
      ],
      [
        "te",
        "ars"
      ],
      [
        "si",
        "x"
      ],
      [
        "S",
        "hall"
      ],
      [
        "a",
        "ction"
      ],
      [
        "appe",
        "ar"
      ],
      [
        "SE",
        "COND"
      ],
      [
        "ce",
        "ed"
      ],
      [
        "ple",
        "ase"
      ],
      [
        "cour",
        "se"
      ],
      [
        "ri",
        "ble"
      ],
      [
        "LE",
        "T"
      ],
      [
        "RICH",
        "ARD"
      ],
      [
        "am",
        "p"
      ],
      [
        "E",
        "EN"
      ],
      [
        "Y",
        "et"
      ],
      [
        "p",
        "al"
      ],
      [
        "t",
        "able"
      ],
      [
        "si",
        "ght"
      ],
      [
        "tong",
        "ue"
      ],
      [
        "H",
        "AM"
      ],
      [
        "R",
        "Y"
      ],
      [
        "g",
        "row"
      ],
      [
        "si",
        "e"
      ],
      [
        "cour",
        "t"
      ],
      [
        "D",
        "en"
      ],
      [
        "en",
        "s"
      ],
      [
        "ra",
        "ce"
      ],
      [
        "c",
        "ra"
      ],
      [
        "c",
        "ry"
      ],
      [
        "r",
        "up"
      ],
      [
        "t",
        "ou"
      ],
      [
        "on",
        "es"
      ],
      [
        "ce",
        "ll"
      ],
      [
        "m",
        "us"
      ],
      [
        "ver",
        "t"
      ],
      [
        "com",
        "ing"
      ],
      [
        "M",
        "ad"
      ],
      [
        "th",
        "s"
      ],
      [
        "went",
        "y"
      ],
      [
        "str",
        "ong"
      ],
      [
        "ha",
        "ir"
      ],
      [
        "ent",
        "ered"
      ],
      [
        "wo",
        "men"
      ],
      [
        "an",
        "c"
      ],
      [
        "p",
        "ort"
      ],
      [
        "u",
        "res"
      ],
      [
        "it",
        "ing"
      ],
      [
        "new",
        "s"
      ],
      [
        "hon",
        "est"
      ],
      [
        "O",
        "ur"
      ],
      [
        "Th",
        "y"
      ],
      [
        "M",
        "a"
      ],
      [
        "U",
        "N"
      ],
      [
        "s",
        "word"
      ],
      [
        "vir",
        "t"
      ],
      [
        "A",
        "G"
      ],
      [
        "t",
        "ion"
      ],
      [
        "of",
        "t"
      ],
      [
        "hel",
        "p"
      ],
      [
        "fr",
        "ont"
      ],
      [
        "d",
        "ress"
      ],
      [
        "1",
        "8"
      ],
      [
        "r",
        "is"
      ],
      [
        "pos",
        "ition"
      ],
      [
        "your",
        "self"
      ],
      [
        "pr",
        "of"
      ],
      [
        "b",
        "ri"
      ],
      [
        "p",
        "rom"
      ],
      [
        "count",
        "ry"
      ],
      [
        "w",
        "ater"
      ],
      [
        "se",
        "cond"
      ],
      [
        "fi",
        "ght"
      ],
      [
        "S",
        "aint"
      ],
      [
        "it",
        "ies"
      ],
      [
        "fa",
        "ith"
      ],
      [
        "il",
        "s"
      ],
      [
        "gr",
        "ound"
      ],
      [
        "P",
        "R"
      ],
      [
        "c",
        "ross"
      ],
      [
        "p",
        "ast"
      ],
      [
        "es",
        "ar"
      ],
      [
        "id",
        "ed"
      ],
      [
        "af",
        "f"
      ],
      [
        "QU",
        "EEN"
      ],
      [
        "e",
        "mb"
      ],
      [
        "lo",
        "v"
      ],
      [
        "th",
        "ine"
      ],
      [
        "le",
        "ad"
      ],
      [
        "for",
        "ce"
      ],
      [
        "fi",
        "ed"
      ],
      [
        "look",
        "ing"
      ],
      [
        "sm",
        "all"
      ],
      [
        "v",
        "a"
      ],
      [
        "v",
        "y"
      ],
      [
        "go",
        "ld"
      ],
      [
        "say",
        "s"
      ],
      [
        "STA",
        "FF"
      ],
      [
        "sk",
        "i"
      ],
      [
        "F",
        "AL"
      ],
      [
        "W",
        "N"
      ],
      [
        "k",
        "ne"
      ],
      [
        "ti",
        "c"
      ],
      [
        "gr",
        "and"
      ],
      [
        "c",
        "ase"
      ],
      [
        "t",
        "ran"
      ],
      [
        "u",
        "al"
      ],
      [
        "ne",
        "cess"
      ],
      [
        "qu",
        "ick"
      ],
      [
        "mak",
        "es"
      ],
      [
        "I",
        "T"
      ],
      [
        "d",
        "in"
      ],
      [
        "be",
        "come"
      ],
      [
        "so",
        "ci"
      ],
      [
        "hu",
        "man"
      ],
      [
        "A",
        "re"
      ],
      [
        "even",
        "ing"
      ],
      [
        "de",
        "c"
      ],
      [
        "per",
        "i"
      ],
      [
        "t",
        "wenty"
      ],
      [
        "lar",
        "ge"
      ],
      [
        "fe",
        "ll"
      ],
      [
        "fal",
        "se"
      ],
      [
        "FAL",
        "STAFF"
      ],
      [
        "b",
        "ad"
      ],
      [
        "child",
        "ren"
      ],
      [
        "p",
        "i"
      ],
      [
        "re",
        "co"
      ],
      [
        "Ca",
        "esar"
      ],
      [
        "O",
        "h"
      ],
      [
        "D",
        "e"
      ],
      [
        "P",
        "o"
      ],
      [
        "k",
        "ho"
      ],
      [
        "I",
        "AN"
      ],
      [
        "c",
        "rown"
      ],
      [
        "me",
        "ans"
      ],
      [
        "I",
        "D"
      ],
      [
        "s",
        "ad"
      ],
      [
        "ll",
        "ed"
      ],
      [
        "ene",
        "my"
      ],
      [
        "Russi",
        "an"
      ],
      [
        "sie",
        "ur"
      ],
      [
        "al",
        "ong"
      ],
      [
        "fi",
        "ve"
      ],
      [
        "ic",
        "al"
      ],
      [
        "DU",
        "KE"
      ],
      [
        "g",
        "ard"
      ],
      [
        "thought",
        "s"
      ],
      [
        "en",
        "g"
      ],
      [
        "en",
        "ough"
      ],
      [
        "il",
        "ity"
      ],
      [
        "m",
        "ur"
      ],
      [
        "r",
        "on"
      ],
      [
        "ab",
        "ly"
      ],
      [
        "ar",
        "ing"
      ],
      [
        "J",
        "o"
      ],
      [
        "R",
        "A"
      ],
      [
        "w",
        "atch"
      ],
      [
        "m",
        "ou"
      ],
      [
        "p",
        "ret"
      ],
      [
        "you",
        "th"
      ],
      [
        "ate",
        "ly"
      ],
      [
        "m",
        "oney"
      ],
      [
        "sh",
        "ort"
      ],
      [
        "c",
        "orn"
      ],
      [
        "e",
        "le"
      ],
      [
        "ex",
        "t"
      ],
      [
        "Ja",
        "vert"
      ],
      [
        "d",
        "ream"
      ],
      [
        "im",
        "ent"
      ],
      [
        "appe",
        "ared"
      ],
      [
        "b",
        "urn"
      ],
      [
        "ad",
        "m"
      ],
      [
        "see",
        "m"
      ],
      [
        "ure",
        "d"
      ],
      [
        "ur",
        "ing"
      ],
      [
        "sha",
        "me"
      ],
      [
        "c",
        "row"
      ],
      [
        "po",
        "st"
      ],
      [
        "end",
        "s"
      ],
      [
        "beg",
        "in"
      ],
      [
        "S",
        "ón"
      ],
      [
        "s",
        "had"
      ],
      [
        "our",
        "s"
      ],
      [
        "am",
        "ong"
      ],
      [
        "sold",
        "ier"
      ],
      [
        "IC",
        "K"
      ],
      [
        "Són",
        "ya"
      ],
      [
        "G",
        "O"
      ],
      [
        "ut",
        "ion"
      ],
      [
        "ic",
        "es"
      ],
      [
        "say",
        "ing"
      ],
      [
        "h",
        "ur"
      ],
      [
        "there",
        "fore"
      ],
      [
        "C",
        "O"
      ],
      [
        "a",
        "me"
      ],
      [
        "d",
        "r"
      ],
      [
        "be",
        "y"
      ],
      [
        "ab",
        "ove"
      ],
      [
        "RO",
        "S"
      ],
      [
        "l",
        "an"
      ],
      [
        "kho",
        "v"
      ],
      [
        "A",
        "f"
      ],
      [
        "B",
        "or"
      ],
      [
        "itt",
        "ed"
      ],
      [
        "ser",
        "vice"
      ],
      [
        "I",
        "ST"
      ],
      [
        "L",
        "u"
      ],
      [
        "R",
        "ESS"
      ],
      [
        "C",
        "om"
      ],
      [
        "re",
        "al"
      ],
      [
        "bo",
        "t"
      ],
      [
        "v",
        "an"
      ],
      [
        "í",
        "sov"
      ],
      [
        "bo",
        "ok"
      ],
      [
        "v",
        "ie"
      ],
      [
        "add",
        "ed"
      ],
      [
        "ANT",
        "ON"
      ],
      [
        "Den",
        "ísov"
      ],
      [
        "il",
        "ing"
      ],
      [
        "g",
        "ing"
      ],
      [
        "s",
        "ister"
      ],
      [
        "in",
        "deed"
      ],
      [
        "Mon",
        "sieur"
      ],
      [
        "ow",
        "ed"
      ],
      [
        "bre",
        "ath"
      ],
      [
        "j",
        "ud"
      ],
      [
        "lo",
        "ved"
      ],
      [
        "know",
        "s"
      ],
      [
        "cons",
        "id"
      ],
      [
        "gentle",
        "man"
      ],
      [
        "p",
        "ain"
      ],
      [
        "s",
        "ess"
      ],
      [
        "ce",
        "ive"
      ],
      [
        "p",
        "or"
      ],
      [
        "ve",
        "l"
      ],
      [
        "end",
        "ing"
      ],
      [
        "is",
        "hop"
      ],
      [
        "remain",
        "ed"
      ],
      [
        "tow",
        "n"
      ],
      [
        "i",
        "a"
      ],
      [
        "p",
        "lo"
      ],
      [
        "mo",
        "ved"
      ],
      [
        "un",
        "g"
      ],
      [
        "ck",
        "ed"
      ],
      [
        "cri",
        "ed"
      ],
      [
        "r",
        "ant"
      ],
      [
        "s",
        "im"
      ],
      [
        "s",
        "mo"
      ],
      [
        "itt",
        "ing"
      ],
      [
        "gir",
        "l"
      ],
      [
        "O",
        "TH"
      ],
      [
        "f",
        "ran"
      ],
      [
        "p",
        "ie"
      ],
      [
        "de",
        "ep"
      ],
      [
        "gra",
        "ve"
      ],
      [
        "vie",
        "w"
      ],
      [
        "h",
        "ence"
      ],
      [
        "PR",
        "IN"
      ],
      [
        "c",
        "ou"
      ],
      [
        "h",
        "ang"
      ],
      [
        "co",
        "at"
      ],
      [
        "ra",
        "ge"
      ],
      [
        "L",
        "ES"
      ],
      [
        "P",
        "er"
      ],
      [
        "g",
        "es"
      ],
      [
        "t",
        "r"
      ],
      [
        "se",
        "ver"
      ],
      [
        "ro",
        "se"
      ],
      [
        "cle",
        "ar"
      ],
      [
        "n",
        "on"
      ],
      [
        "ar",
        "ch"
      ],
      [
        "wor",
        "th"
      ],
      [
        "pleas",
        "ure"
      ],
      [
        "D",
        "id"
      ],
      [
        "H",
        "a"
      ],
      [
        "h",
        "um"
      ],
      [
        "r",
        "or"
      ],
      [
        "ut",
        "en"
      ],
      [
        "ard",
        "on"
      ],
      [
        "clo",
        "se"
      ],
      [
        "dou",
        "bt"
      ],
      [
        "Af",
        "ter"
      ],
      [
        "p",
        "ay"
      ],
      [
        "R",
        "E"
      ],
      [
        "b",
        "arri"
      ],
      [
        "re",
        "su"
      ],
      [
        "un",
        "to"
      ],
      [
        "ush",
        "ed"
      ],
      [
        "L",
        "UC"
      ],
      [
        "f",
        "lo"
      ],
      [
        "des",
        "er"
      ],
      [
        "bus",
        "iness"
      ],
      [
        "se",
        "c"
      ],
      [
        "de",
        "li"
      ],
      [
        "fort",
        "une"
      ],
      [
        "pos",
        "sess"
      ],
      [
        "su",
        "p"
      ],
      [
        "s",
        "al"
      ],
      [
        "s",
        "pr"
      ],
      [
        "G",
        "ive"
      ],
      [
        "w",
        "ise"
      ],
      [
        "al",
        "th"
      ],
      [
        "are",
        "well"
      ],
      [
        "AC",
        "T"
      ],
      [
        "Engl",
        "and"
      ],
      [
        "H",
        "EN"
      ],
      [
        "s",
        "y"
      ],
      [
        "ag",
        "ue"
      ],
      [
        "than",
        "k"
      ],
      [
        "Lo",
        "ok"
      ],
      [
        "e",
        "ither"
      ],
      [
        "n",
        "i"
      ],
      [
        "as",
        "si"
      ],
      [
        "pa",
        "per"
      ],
      [
        "feel",
        "ing"
      ],
      [
        "H",
        "O"
      ],
      [
        "d",
        "anger"
      ],
      [
        "op",
        "s"
      ],
      [
        "As",
        "ide"
      ],
      [
        "S",
        "h"
      ],
      [
        "T",
        "O"
      ],
      [
        "U",
        "M"
      ],
      [
        "An",
        "ton"
      ],
      [
        "Mo",
        "re"
      ],
      [
        "tak",
        "ing"
      ],
      [
        "ter",
        "rible"
      ],
      [
        "rep",
        "ort"
      ],
      [
        "spo",
        "ke"
      ],
      [
        "B",
        "r"
      ],
      [
        "le",
        "ar"
      ],
      [
        "for",
        "med"
      ],
      [
        "of",
        "ten"
      ],
      [
        "we",
        "ep"
      ],
      [
        "wo",
        "od"
      ],
      [
        "HEN",
        "RY"
      ],
      [
        "ie",
        "ld"
      ],
      [
        "l",
        "it"
      ],
      [
        "ch",
        "ange"
      ],
      [
        "bea",
        "uty"
      ],
      [
        "evid",
        "ently"
      ],
      [
        "C",
        "LO"
      ],
      [
        "m",
        "ount"
      ],
      [
        "li",
        "ps"
      ],
      [
        "c",
        "us"
      ],
      [
        "I",
        "M"
      ],
      [
        "pos",
        "ed"
      ],
      [
        "des",
        "ire"
      ],
      [
        "RO",
        "M"
      ],
      [
        "jest",
        "y"
      ],
      [
        "b",
        "ene"
      ],
      [
        "s",
        "orrow"
      ],
      [
        "M",
        "ay"
      ],
      [
        "b",
        "ound"
      ],
      [
        "f",
        "ast"
      ],
      [
        "p",
        "rep"
      ],
      [
        "gard",
        "en"
      ],
      [
        "B",
        "A"
      ],
      [
        "g",
        "re"
      ],
      [
        "si",
        "ck"
      ],
      [
        "par",
        "ti"
      ],
      [
        "L",
        "i"
      ],
      [
        "at",
        "o"
      ],
      [
        "are",
        "n"
      ],
      [
        "com",
        "fort"
      ],
      [
        "hor",
        "ses"
      ],
      [
        "in",
        "es"
      ],
      [
        "pr",
        "incess"
      ],
      [
        "mar",
        "k"
      ],
      [
        "whe",
        "ther"
      ],
      [
        "z",
        "ed"
      ],
      [
        "en",
        "or"
      ],
      [
        "gri",
        "ef"
      ],
      [
        "c",
        "ast"
      ],
      [
        "fe",
        "et"
      ],
      [
        "ous",
        "in"
      ],
      [
        "ction",
        "s"
      ],
      [
        "ous",
        "ly"
      ],
      [
        "fir",
        "m"
      ],
      [
        "vill",
        "ain"
      ],
      [
        "C",
        "an"
      ],
      [
        "V",
        "I"
      ],
      [
        "wor",
        "thy"
      ],
      [
        "Be",
        "fore"
      ],
      [
        "ond",
        "er"
      ],
      [
        "comp",
        "any"
      ],
      [
        "b",
        "all"
      ],
      [
        "e",
        "as"
      ],
      [
        "re",
        "pe"
      ],
      [
        "M",
        "aster"
      ],
      [
        "al",
        "s"
      ],
      [
        "dev",
        "il"
      ],
      [
        "belie",
        "ve"
      ],
      [
        "i",
        "ble"
      ],
      [
        "s",
        "in"
      ],
      [
        "t",
        "ry"
      ],
      [
        "res",
        "pect"
      ],
      [
        "l",
        "ine"
      ],
      [
        "p",
        "ity"
      ],
      [
        "ex",
        "ist"
      ],
      [
        "god",
        "s"
      ],
      [
        "re",
        "ceived"
      ],
      [
        "count",
        "ess"
      ],
      [
        "dr",
        "ink"
      ],
      [
        "ne",
        "ither"
      ],
      [
        "fa",
        "v"
      ],
      [
        "vi",
        "ct"
      ],
      [
        "f",
        "ine"
      ],
      [
        "y",
        "ing"
      ],
      [
        "do",
        "st"
      ],
      [
        "ag",
        "es"
      ],
      [
        "c",
        "ir"
      ],
      [
        "d",
        "ri"
      ],
      [
        "ap",
        "p"
      ],
      [
        "pres",
        "ence"
      ],
      [
        "spir",
        "it"
      ],
      [
        "crow",
        "d"
      ],
      [
        "m",
        "il"
      ],
      [
        "u",
        "g"
      ],
      [
        "pro",
        "ve"
      ],
      [
        "HAM",
        "LET"
      ],
      [
        "ne",
        "xt"
      ],
      [
        "ren",
        "g"
      ],
      [
        "stra",
        "ight"
      ],
      [
        "U",
        "pon"
      ],
      [
        "reco",
        "gn"
      ],
      [
        "F",
        "au"
      ],
      [
        "f",
        "ing"
      ],
      [
        "f",
        "it"
      ],
      [
        "af",
        "fair"
      ],
      [
        "di",
        "v"
      ],
      [
        "f",
        "ly"
      ],
      [
        "f",
        "right"
      ],
      [
        "i",
        "ant"
      ],
      [
        "l",
        "ate"
      ],
      [
        "ch",
        "ang"
      ],
      [
        "Engl",
        "ish"
      ],
      [
        "c",
        "re"
      ],
      [
        "do",
        "m"
      ],
      [
        "hi",
        "ther"
      ],
      [
        "reme",
        "mber"
      ],
      [
        "express",
        "ion"
      ],
      [
        "d",
        "am"
      ],
      [
        "h",
        "n"
      ],
      [
        "st",
        "reng"
      ],
      [
        "mist",
        "ress"
      ],
      [
        "y",
        "es"
      ],
      [
        "mo",
        "tion"
      ],
      [
        "return",
        "ed"
      ],
      [
        "Thou",
        "gh"
      ],
      [
        "toward",
        "s"
      ],
      [
        "tend",
        "er"
      ],
      [
        "pa",
        "le"
      ],
      [
        "P",
        "O"
      ],
      [
        "ra",
        "in"
      ],
      [
        "sub",
        "ject"
      ],
      [
        "E",
        "ven"
      ],
      [
        "R",
        "ich"
      ],
      [
        "M",
        "ont"
      ],
      [
        "W",
        "ould"
      ],
      [
        "se",
        "a"
      ],
      [
        "de",
        "p"
      ],
      [
        "qu",
        "al"
      ],
      [
        "bl",
        "ess"
      ],
      [
        "Jo",
        "hn"
      ],
      [
        "c",
        "ers"
      ],
      [
        "c",
        "reat"
      ],
      [
        "be",
        "ll"
      ],
      [
        "continu",
        "ed"
      ],
      [
        "u",
        "mber"
      ],
      [
        "mad",
        "am"
      ],
      [
        "ri",
        "ch"
      ],
      [
        "ru",
        "m"
      ],
      [
        "lord",
        "s"
      ],
      [
        "B",
        "ar"
      ],
      [
        "be",
        "came"
      ],
      [
        "e",
        "at"
      ],
      [
        "dif",
        "fer"
      ],
      [
        "mou",
        "th"
      ],
      [
        "s",
        "or"
      ],
      [
        "tem",
        "pt"
      ],
      [
        "S",
        "H"
      ],
      [
        "b",
        "or"
      ],
      [
        "u",
        "es"
      ],
      [
        "for",
        "ward"
      ],
      [
        "op",
        "ened"
      ],
      [
        "char",
        "ge"
      ],
      [
        "suf",
        "fer"
      ],
      [
        "fur",
        "ther"
      ],
      [
        "P",
        "ER"
      ],
      [
        "d",
        "uty"
      ],
      [
        "p",
        "ati"
      ],
      [
        "u",
        "ght"
      ],
      [
        "wor",
        "n"
      ],
      [
        "cha",
        "mber"
      ],
      [
        "barri",
        "c"
      ],
      [
        "c",
        "ity"
      ],
      [
        "wind",
        "ow"
      ],
      [
        "pur",
        "pose"
      ],
      [
        "d",
        "are"
      ],
      [
        "de",
        "f"
      ],
      [
        "ca",
        "pt"
      ],
      [
        "ser",
        "v"
      ],
      [
        "D",
        "O"
      ],
      [
        "h",
        "ar"
      ],
      [
        "i",
        "v"
      ],
      [
        "ci",
        "ent"
      ],
      [
        "E",
        "d"
      ],
      [
        "pe",
        "cted"
      ],
      [
        "ci",
        "ence"
      ],
      [
        "ac",
        "qu"
      ],
      [
        "th",
        "or"
      ],
      [
        "as",
        "sa"
      ],
      [
        "sa",
        "ke"
      ],
      [
        "cont",
        "ent"
      ],
      [
        "hour",
        "s"
      ],
      [
        "sat",
        "is"
      ],
      [
        "D",
        "ó"
      ],
      [
        "Q",
        "ue"
      ],
      [
        "c",
        "ousin"
      ],
      [
        "ter",
        "n"
      ],
      [
        "fo",
        "ld"
      ],
      [
        "some",
        "times"
      ],
      [
        "g",
        "lo"
      ],
      [
        "ci",
        "al"
      ],
      [
        "mar",
        "ry"
      ],
      [
        "clo",
        "ck"
      ],
      [
        "add",
        "ress"
      ],
      [
        "W",
        "as"
      ],
      [
        "e",
        "k"
      ],
      [
        "e",
        "ll"
      ],
      [
        "it",
        "or"
      ],
      [
        "for",
        "mer"
      ],
      [
        "ra",
        "p"
      ],
      [
        "su",
        "pp"
      ],
      [
        "li",
        "ce"
      ],
      [
        "coun",
        "ter"
      ],
      [
        "ser",
        "ve"
      ],
      [
        "J",
        "u"
      ],
      [
        "o",
        "th"
      ],
      [
        "s",
        "it"
      ],
      [
        "en",
        "ing"
      ],
      [
        "we",
        "ak"
      ],
      [
        "itu",
        "de"
      ],
      [
        "P",
        "E"
      ],
      [
        "for",
        "d"
      ],
      [
        "li",
        "ar"
      ],
      [
        "fi",
        "f"
      ],
      [
        "cont",
        "r"
      ],
      [
        "Dó",
        "lo"
      ],
      [
        "l",
        "ou"
      ],
      [
        "l",
        "en"
      ],
      [
        "m",
        "iss"
      ],
      [
        "or",
        "k"
      ],
      [
        "ha",
        "bit"
      ],
      [
        "li",
        "ving"
      ],
      [
        "un",
        "i"
      ],
      [
        "man",
        "ner"
      ],
      [
        "Dólo",
        "khov"
      ],
      [
        "an",
        "ces"
      ],
      [
        "st",
        "aff"
      ],
      [
        "we",
        "ar"
      ],
      [
        "mer",
        "cy"
      ],
      [
        "m",
        "orrow"
      ],
      [
        "re",
        "nd"
      ],
      [
        "ke",
        "pt"
      ],
      [
        "fi",
        "x"
      ],
      [
        "le",
        "g"
      ],
      [
        "ES",
        "TER"
      ],
      [
        "gu",
        "ard"
      ],
      [
        "iz",
        "e"
      ],
      [
        "ho",
        "od"
      ],
      [
        "wound",
        "ed"
      ],
      [
        "b",
        "s"
      ],
      [
        "f",
        "le"
      ],
      [
        "p",
        "it"
      ],
      [
        "te",
        "en"
      ],
      [
        "und",
        "ers"
      ],
      [
        "pa",
        "ir"
      ],
      [
        "b",
        "orn"
      ],
      [
        "p",
        "ardon"
      ],
      [
        "t",
        "le"
      ],
      [
        "t",
        "rou"
      ],
      [
        "ne",
        "y"
      ],
      [
        "go",
        "ver"
      ],
      [
        "pro",
        "v"
      ],
      [
        "roy",
        "al"
      ],
      [
        "mak",
        "ing"
      ],
      [
        "Que",
        "en"
      ],
      [
        "ha",
        "ps"
      ],
      [
        "ex",
        "cell"
      ],
      [
        "look",
        "s"
      ],
      [
        "E",
        "very"
      ],
      [
        "G",
        "u"
      ],
      [
        "H",
        "en"
      ],
      [
        "w",
        "ret"
      ],
      [
        "ch",
        "ance"
      ],
      [
        "att",
        "ent"
      ],
      [
        "se",
        "mb"
      ],
      [
        "pr",
        "oud"
      ],
      [
        "sil",
        "ence"
      ],
      [
        "M",
        "ON"
      ],
      [
        "EL",
        "LO"
      ],
      [
        "shout",
        "ed"
      ],
      [
        "G",
        "AR"
      ],
      [
        "ow",
        "ers"
      ],
      [
        "gl",
        "ass"
      ],
      [
        "cover",
        "ed"
      ],
      [
        "f",
        "at"
      ],
      [
        "m",
        "or"
      ],
      [
        "u",
        "mb"
      ],
      [
        "sha",
        "lt"
      ],
      [
        "cha",
        "ir"
      ],
      [
        "tro",
        "ops"
      ],
      [
        "g",
        "in"
      ],
      [
        "s",
        "end"
      ],
      [
        "re",
        "sol"
      ],
      [
        "L",
        "ORD"
      ],
      [
        "to",
        "od"
      ],
      [
        "im",
        "ag"
      ],
      [
        "ere",
        "ign"
      ]
    ]
  }
}